const unsigned char model[] = {
  0x1c, 0x00, 0x00, 0x00, 0x54, 0x46, 0x4c, 0x33, 0x14, 0x00, 0x20, 0x00,
  0x1c, 0x00, 0x18, 0x00, 0x14, 0x00, 0x10, 0x00, 0x0c, 0x00, 0x00, 0x00,
  0x08, 0x00, 0x04, 0x00, 0x14, 0x00, 0x00, 0x00, 0x1c, 0x00, 0x00, 0x00,
  0x9c, 0x00, 0x00, 0x00, 0xf4, 0x00, 0x00, 0x00, 0x28, 0x39, 0x00, 0x00,
  0x38, 0x39, 0x00, 0x00, 0xb0, 0x3e, 0x00, 0x00, 0x03, 0x00, 0x00, 0x00,
  0x01, 0x00, 0x00, 0x00, 0x10, 0x00, 0x00, 0x00, 0x00, 0x00, 0x0a, 0x00,
  0x10, 0x00, 0x0c, 0x00, 0x08, 0x00, 0x04, 0x00, 0x0a, 0x00, 0x00, 0x00,
  0x0c, 0x00, 0x00, 0x00, 0x1c, 0x00, 0x00, 0x00, 0x3c, 0x00, 0x00, 0x00,
  0x0f, 0x00, 0x00, 0x00, 0x73, 0x65, 0x72, 0x76, 0x69, 0x6e, 0x67, 0x5f,
  0x64, 0x65, 0x66, 0x61, 0x75, 0x6c, 0x74, 0x00, 0x01, 0x00, 0x00, 0x00,
  0x04, 0x00, 0x00, 0x00, 0x8c, 0xff, 0xff, 0xff, 0x0a, 0x00, 0x00, 0x00,
  0x04, 0x00, 0x00, 0x00, 0x08, 0x00, 0x00, 0x00, 0x6f, 0x75, 0x74, 0x70,
  0x75, 0x74, 0x5f, 0x30, 0x00, 0x00, 0x00, 0x00, 0x01, 0x00, 0x00, 0x00,
  0x04, 0x00, 0x00, 0x00, 0xbe, 0xc6, 0xff, 0xff, 0x04, 0x00, 0x00, 0x00,
  0x10, 0x00, 0x00, 0x00, 0x6b, 0x65, 0x72, 0x61, 0x73, 0x5f, 0x74, 0x65,
  0x6e, 0x73, 0x6f, 0x72, 0x5f, 0x31, 0x32, 0x30, 0x00, 0x00, 0x00, 0x00,
  0x02, 0x00, 0x00, 0x00, 0x34, 0x00, 0x00, 0x00, 0x04, 0x00, 0x00, 0x00,
  0xdc, 0xff, 0xff, 0xff, 0x0d, 0x00, 0x00, 0x00, 0x04, 0x00, 0x00, 0x00,
  0x13, 0x00, 0x00, 0x00, 0x43, 0x4f, 0x4e, 0x56, 0x45, 0x52, 0x53, 0x49,
  0x4f, 0x4e, 0x5f, 0x4d, 0x45, 0x54, 0x41, 0x44, 0x41, 0x54, 0x41, 0x00,
  0x08, 0x00, 0x0c, 0x00, 0x08, 0x00, 0x04, 0x00, 0x08, 0x00, 0x00, 0x00,
  0x0c, 0x00, 0x00, 0x00, 0x04, 0x00, 0x00, 0x00, 0x13, 0x00, 0x00, 0x00,
  0x6d, 0x69, 0x6e, 0x5f, 0x72, 0x75, 0x6e, 0x74, 0x69, 0x6d, 0x65, 0x5f,
  0x76, 0x65, 0x72, 0x73, 0x69, 0x6f, 0x6e, 0x00, 0x0e, 0x00, 0x00, 0x00,
  0x30, 0x38, 0x00, 0x00, 0x28, 0x38, 0x00, 0x00, 0xd8, 0x36, 0x00, 0x00,
  0xc8, 0x2e, 0x00, 0x00, 0xa4, 0x2e, 0x00, 0x00, 0x54, 0x2e, 0x00, 0x00,
  0xc4, 0x2d, 0x00, 0x00, 0xb4, 0x00, 0x00, 0x00, 0xac, 0x00, 0x00, 0x00,
  0xa4, 0x00, 0x00, 0x00, 0x9c, 0x00, 0x00, 0x00, 0x94, 0x00, 0x00, 0x00,
  0x74, 0x00, 0x00, 0x00, 0x04, 0x00, 0x00, 0x00, 0x76, 0xc7, 0xff, 0xff,
  0x04, 0x00, 0x00, 0x00, 0x60, 0x00, 0x00, 0x00, 0x10, 0x00, 0x00, 0x00,
  0x00, 0x00, 0x00, 0x00, 0x08, 0x00, 0x0e, 0x00, 0x08, 0x00, 0x04, 0x00,
  0x08, 0x00, 0x00, 0x00, 0x10, 0x00, 0x00, 0x00, 0x24, 0x00, 0x00, 0x00,
  0x00, 0x00, 0x06, 0x00, 0x08, 0x00, 0x04, 0x00, 0x06, 0x00, 0x00, 0x00,
  0x04, 0x00, 0x00, 0x00, 0x00, 0x00, 0x00, 0x00, 0x0c, 0x00, 0x18, 0x00,
  0x14, 0x00, 0x10, 0x00, 0x0c, 0x00, 0x04, 0x00, 0x0c, 0x00, 0x00, 0x00,
  0xe0, 0x58, 0xe0, 0xd4, 0x85, 0xeb, 0xb6, 0x2d, 0x02, 0x00, 0x00, 0x00,
  0x02, 0x00, 0x00, 0x00, 0x04, 0x00, 0x00, 0x00, 0x06, 0x00, 0x00, 0x00,
  0x32, 0x2e, 0x31, 0x39, 0x2e, 0x30, 0x00, 0x00, 0xe2, 0xc7, 0xff, 0xff,
  0x04, 0x00, 0x00, 0x00, 0x10, 0x00, 0x00, 0x00, 0x31, 0x2e, 0x35, 0x2e,
  0x30, 0x00, 0x00, 0x00, 0x00, 0x00, 0x00, 0x00, 0x00, 0x00, 0x00, 0x00,
  0x38, 0xc3, 0xff, 0xff, 0x3c, 0xc3, 0xff, 0xff, 0x40, 0xc3, 0xff, 0xff,
  0x44, 0xc3, 0xff, 0xff, 0x0e, 0xc8, 0xff, 0xff, 0x04, 0x00, 0x00, 0x00,
  0x00, 0x2d, 0x00, 0x00, 0x3c, 0x7c, 0x0f, 0xbe, 0x9c, 0x6f, 0xea, 0xbd,
  0x42, 0xe8, 0x5d, 0xbe, 0x10, 0x41, 0x42, 0x3d, 0x98, 0x31, 0x37, 0x3d,
  0x5c, 0x87, 0x73, 0xbd, 0x00, 0x1e, 0x96, 0x3d, 0xfc, 0xf0, 0xb9, 0x3d,
  0xae, 0x1e, 0x1c, 0xbe, 0x56, 0xda, 0x13, 0xbe, 0x18, 0x55, 0xb0, 0x3c,
  0xf0, 0x45, 0x04, 0xbc, 0x58, 0xe9, 0xba, 0x3d, 0x00, 0xc0, 0xe5, 0xbb,
  0xc6, 0xc7, 0x19, 0x3e, 0x52, 0x16, 0x2b, 0xbe, 0xdd, 0x72, 0x43, 0xbe,
  0x88, 0x46, 0x32, 0xbd, 0x5c, 0xe2, 0xcf, 0xbd, 0x60, 0x4b, 0x51, 0x3d,
  0x03, 0x4c, 0x4c, 0xbe, 0x00, 0x8c, 0x7d, 0xba, 0xe4, 0x3d, 0xcd, 0x3d,
  0xda, 0x76, 0x1d, 0xbe, 0x00, 0x9e, 0x2e, 0x3b, 0xf8, 0xdf, 0xb5, 0x3d,
  0x92, 0xee, 0x18, 0xbe, 0x16, 0x04, 0xb7, 0xbd, 0xaa, 0x66, 0x17, 0xbe,
  0x70, 0x75, 0x29, 0x3e, 0x4b, 0xb5, 0xd4, 0xbd, 0xc8, 0x6b, 0xcc, 0xbc,
  0x54, 0x1d, 0x4d, 0x3e, 0xe6, 0x56, 0x3e, 0x3e, 0x94, 0xfb, 0xc9, 0x3d,
  0xb8, 0x5d, 0xa9, 0x3d, 0x00, 0x55, 0x0a, 0xbe, 0x34, 0x9f, 0x2a, 0x3e,
  0xf0, 0xeb, 0x54, 0xbc, 0xc7, 0x37, 0x06, 0xbe, 0x57, 0x4e, 0xf7, 0xbd,
  0xf1, 0x15, 0x28, 0xbe, 0x2a, 0x42, 0xad, 0xbd, 0x5c, 0x53, 0x3b, 0xbe,
  0x6b, 0x67, 0xf3, 0xbd, 0x20, 0x9a, 0xfa, 0x3c, 0x50, 0xaf, 0x3a, 0x3c,
  0xc0, 0xe6, 0xb2, 0x3c, 0x3f, 0x1c, 0x1e, 0xbe, 0x40, 0x1d, 0x68, 0x3d,
  0x00, 0x92, 0xe4, 0x3b, 0x98, 0x05, 0xe5, 0x3d, 0x04, 0x87, 0x7e, 0xbd,
  0xf5, 0x05, 0x0b, 0xbe, 0xb0, 0x2d, 0x10, 0xbe, 0xe9, 0x67, 0x39, 0xbe,
  0x00, 0x23, 0x6e, 0xba, 0xe0, 0xdb, 0x84, 0x3b, 0xc8, 0x6f, 0x42, 0xbe,
  0x7e, 0xcc, 0x53, 0x3e, 0x04, 0x38, 0x96, 0x3d, 0x28, 0xcf, 0x7d, 0x3d,
  0x1c, 0x73, 0xd8, 0x3d, 0xe0, 0x73, 0xd2, 0x3b, 0x41, 0xbe, 0x2c, 0xbe,
  0x94, 0x48, 0x6d, 0xbd, 0xe6, 0x13, 0x0c, 0xbe, 0xa0, 0x90, 0x0b, 0x3d,
  0xe2, 0x46, 0xc3, 0xbd, 0x8d, 0x17, 0x29, 0xbe, 0x9e, 0x9b, 0xf4, 0xbd,
  0x20, 0x39, 0xf0, 0xbb, 0x30, 0x64, 0x1a, 0x3e, 0x14, 0xe1, 0x1e, 0x3e,
  0x64, 0xee, 0x47, 0xbe, 0x9c, 0x99, 0x91, 0xbd, 0xcb, 0x9b, 0x56, 0xbe,
  0xf8, 0xc5, 0x4c, 0xbd, 0xe8, 0xbd, 0xcf, 0xbd, 0x11, 0x4b, 0x0d, 0xbe,
  0x82, 0x1a, 0x56, 0x3e, 0x16, 0x68, 0x14, 0x3e, 0x1c, 0x92, 0x3a, 0xbd,
  0x00, 0xe4, 0xc4, 0xbb, 0x14, 0x67, 0x95, 0x3d, 0x78, 0xa1, 0xab, 0xbc,
  0xa2, 0xd0, 0x45, 0x3e, 0xa4, 0x3a, 0x15, 0xbe, 0xe9, 0x41, 0x4d, 0xbe,
  0x2c, 0x60, 0x5b, 0x3e, 0xd5, 0x60, 0x99, 0xbe, 0xab, 0x9b, 0x63, 0xbd,
  0xd5, 0xa3, 0x02, 0xbf, 0x64, 0xa7, 0xdb, 0x3d, 0xbf, 0x96, 0x9f, 0xbd,
  0xb6, 0x43, 0x7a, 0x3f, 0x7d, 0xa4, 0x01, 0x3f, 0x25, 0x03, 0xf1, 0x3d,
  0xd9, 0xbb, 0x0e, 0x3e, 0xee, 0x98, 0x5b, 0x3e, 0xd7, 0x24, 0xcd, 0xbc,
  0xe9, 0x00, 0x39, 0x3e, 0x8c, 0xbf, 0xe7, 0xbd, 0x0b, 0xfb, 0x56, 0xbe,
  0xe5, 0xb9, 0x6b, 0xbd, 0xa3, 0x93, 0xa6, 0xbe, 0x8d, 0xb6, 0xc0, 0xbd,
  0x78, 0x1a, 0x4d, 0xbe, 0x90, 0x6a, 0x17, 0x3e, 0xa1, 0x24, 0x3a, 0x3e,
  0x92, 0x45, 0x80, 0x3f, 0x59, 0xc6, 0x44, 0x3d, 0xca, 0xfd, 0x0d, 0x3f,
  0x51, 0xb9, 0xc5, 0x3c, 0x85, 0x4c, 0x52, 0xbd, 0xb9, 0x58, 0xee, 0x3c,
  0xa4, 0x34, 0xbc, 0x3e, 0xee, 0x16, 0x06, 0xbe, 0x41, 0x90, 0xf3, 0x3e,
  0x38, 0x5f, 0x91, 0x3e, 0x05, 0x42, 0x72, 0xbe, 0x20, 0x65, 0x0e, 0xbd,
  0x43, 0xc8, 0x02, 0xbf, 0x2c, 0xd1, 0x07, 0x3e, 0x61, 0x30, 0x8d, 0x3d,
  0xe8, 0x88, 0x8a, 0x3f, 0x19, 0xe9, 0x07, 0x3e, 0x76, 0x52, 0x23, 0x3f,
  0x2d, 0x30, 0x70, 0xbd, 0x82, 0x04, 0x00, 0x3f, 0xca, 0x71, 0x00, 0xbd,
  0xc6, 0x65, 0x17, 0x3f, 0x78, 0xcd, 0x9d, 0xbe, 0xde, 0x2c, 0x20, 0x3e,
  0xd4, 0x8f, 0xc0, 0xbe, 0x69, 0x34, 0x2e, 0xbe, 0x25, 0x89, 0xb3, 0xbe,
  0x2a, 0xe9, 0xb9, 0xbd, 0xe1, 0xe0, 0xec, 0xbd, 0x36, 0x6e, 0x0c, 0xbe,
  0xdc, 0x4f, 0x7a, 0x3e, 0x27, 0x1c, 0xe9, 0x3d, 0x06, 0xea, 0x35, 0x3c,
  0x16, 0xe6, 0xda, 0x3d, 0x89, 0x2d, 0xf5, 0xbd, 0xb5, 0xdc, 0x00, 0x3e,
  0xf6, 0xbf, 0xb3, 0xbe, 0xc1, 0x87, 0xbe, 0xbe, 0xb7, 0xae, 0x1c, 0xbd,
  0xfb, 0x89, 0xcf, 0xbe, 0xad, 0x55, 0x98, 0xbd, 0xad, 0x0a, 0xcb, 0xbe,
  0xfb, 0xb4, 0x96, 0xbe, 0x1e, 0x55, 0x07, 0x3e, 0xf5, 0x27, 0x50, 0x3d,
  0x95, 0x33, 0x57, 0x3f, 0xaf, 0x16, 0x59, 0x3e, 0x2b, 0x1c, 0x3e, 0x3e,
  0x1d, 0xcc, 0x05, 0xba, 0x6c, 0xbe, 0x45, 0xbe, 0xf7, 0x6d, 0x37, 0x3d,
  0xbc, 0x33, 0x4a, 0xbe, 0xef, 0xb1, 0x1b, 0xbe, 0x34, 0xe4, 0x9b, 0xbe,
  0x93, 0x78, 0xd6, 0xbe, 0xc9, 0x2f, 0x86, 0xbe, 0x95, 0x14, 0xb3, 0xbc,
  0x30, 0x2d, 0xad, 0xbe, 0x34, 0xf5, 0x35, 0xbd, 0x7e, 0xff, 0x26, 0xbd,
  0x53, 0x79, 0x29, 0x3f, 0x7d, 0x68, 0x07, 0xbd, 0x7c, 0x56, 0xba, 0x3e,
  0xc1, 0x10, 0xcd, 0xbd, 0x1e, 0x85, 0x4e, 0xbb, 0x9e, 0x19, 0x7a, 0xbd,
  0x2b, 0x5a, 0x8f, 0xbd, 0xa7, 0x59, 0x47, 0xbe, 0x30, 0x35, 0xef, 0xbd,
  0x49, 0xa7, 0xd0, 0xbd, 0x5c, 0x0c, 0xdd, 0x3c, 0x60, 0xc0, 0x6e, 0xbe,
  0x07, 0x3a, 0x62, 0xbd, 0xb0, 0x72, 0x34, 0xbe, 0x07, 0x07, 0x94, 0xbe,
  0x52, 0x7d, 0x0e, 0x3e, 0xa5, 0x2f, 0xd3, 0x3d, 0x0f, 0xa1, 0xad, 0xbe,
  0xb3, 0x15, 0xc3, 0xbc, 0xa7, 0x0e, 0xab, 0xbe, 0x4e, 0x06, 0xdb, 0x3c,
  0xd6, 0xb8, 0xe2, 0xbd, 0x22, 0x26, 0xd6, 0xbd, 0x3b, 0xc2, 0xaf, 0xbe,
  0x86, 0x7c, 0x63, 0xbd, 0x40, 0x86, 0x3f, 0xbe, 0x67, 0xc0, 0xaf, 0xbe,
  0x25, 0x48, 0xa8, 0xbe, 0xfa, 0xec, 0x50, 0xbe, 0xd6, 0x63, 0x24, 0xbe,
  0xab, 0xe9, 0xcc, 0x3e, 0x88, 0x89, 0xc0, 0xbe, 0x46, 0x87, 0xfe, 0xbe,
  0x84, 0x01, 0x06, 0xbe, 0xd6, 0x48, 0x1b, 0xbf, 0x09, 0xc9, 0xb4, 0x3d,
  0xf2, 0xd1, 0x0c, 0xbc, 0xed, 0xc3, 0xf5, 0xbe, 0x0f, 0x57, 0x27, 0xbf,
  0x9e, 0x6b, 0x42, 0xbf, 0x23, 0xf7, 0x64, 0xbe, 0x8c, 0x18, 0x3e, 0xbe,
  0xcc, 0x90, 0xf7, 0x3c, 0xce, 0xe4, 0x5b, 0xbe, 0xe6, 0xc0, 0x00, 0xbe,
  0x2e, 0xac, 0xb6, 0x3e, 0xab, 0xe3, 0x34, 0x3e, 0xef, 0xbc, 0xfe, 0x3e,
  0xca, 0xa5, 0xcb, 0x3d, 0x5d, 0xbb, 0x35, 0xbe, 0x5c, 0x19, 0xdb, 0x3d,
  0xcb, 0xa2, 0x8b, 0x3e, 0xf5, 0x6c, 0x9a, 0xbe, 0x18, 0x4d, 0x32, 0xbe,
  0x6c, 0xa1, 0x30, 0xbe, 0x25, 0xbe, 0xc3, 0xbe, 0x22, 0x6f, 0x92, 0x3d,
  0x69, 0xd3, 0x36, 0xbe, 0x06, 0x1b, 0x48, 0xbe, 0x39, 0x4d, 0x67, 0xbe,
  0xb9, 0xc4, 0x01, 0x3f, 0xcc, 0xde, 0x02, 0xbe, 0x9c, 0x42, 0xf9, 0x3d,
  0xc7, 0xcc, 0xd4, 0xbc, 0xe5, 0x12, 0xd2, 0xbd, 0x0c, 0xca, 0x50, 0x39,
  0xe2, 0x80, 0x7b, 0xbe, 0x9a, 0xec, 0x55, 0xbc, 0xab, 0xfd, 0x19, 0xbd,
  0xa5, 0xa7, 0x8d, 0x3d, 0x00, 0x26, 0x93, 0xbc, 0x91, 0xc5, 0x95, 0xbe,
  0x06, 0xc0, 0x00, 0xbe, 0xe0, 0x1f, 0xaa, 0xbb, 0x49, 0xdd, 0xca, 0xbd,
  0x6f, 0xd1, 0x48, 0x3f, 0xf8, 0x13, 0x6b, 0x3e, 0xd9, 0x2a, 0xd2, 0xbd,
  0x58, 0x14, 0x3d, 0x3e, 0x19, 0xb6, 0x92, 0xbe, 0xe2, 0xc5, 0x40, 0x3e,
  0xb6, 0xb5, 0xab, 0x3d, 0x74, 0xc4, 0x3a, 0xbe, 0x04, 0x63, 0xf6, 0xbd,
  0x3f, 0x17, 0x0c, 0xbe, 0xf0, 0xf2, 0xa6, 0xbe, 0x54, 0xc6, 0x2e, 0xbe,
  0x72, 0x73, 0x9c, 0xbd, 0xf8, 0x17, 0x40, 0x3d, 0xfc, 0x6f, 0x10, 0xbe,
  0x6e, 0xef, 0x26, 0x3f, 0x20, 0x89, 0xf9, 0x3d, 0x13, 0x90, 0x81, 0xbe,
  0x41, 0xcb, 0x89, 0x3d, 0xab, 0x40, 0xc3, 0xbe, 0xb8, 0xa6, 0x64, 0x3d,
  0xba, 0xd7, 0x36, 0x3c, 0x6d, 0x3e, 0x91, 0xbd, 0xe6, 0x48, 0xc4, 0xbe,
  0x4f, 0x36, 0xe5, 0xbd, 0x78, 0xca, 0x2a, 0xbd, 0x00, 0x2e, 0xff, 0x3d,
  0xb0, 0x3e, 0x14, 0x3c, 0x11, 0x74, 0x1f, 0xbe, 0xbb, 0xcb, 0xca, 0xbd,
  0xf0, 0xf7, 0x07, 0x3d, 0x94, 0x4e, 0x56, 0x3e, 0xe2, 0x42, 0xe2, 0xbd,
  0x27, 0xe2, 0x1a, 0xbe, 0x4c, 0xaa, 0xf9, 0x3d, 0xc1, 0x70, 0x42, 0xbe,
  0x40, 0x25, 0xaa, 0x3c, 0xf8, 0xd6, 0x2e, 0xbe, 0x50, 0x45, 0x43, 0x3d,
  0x28, 0x33, 0x22, 0xbd, 0x8c, 0xfa, 0x21, 0xbd, 0x75, 0x7c, 0xce, 0xbd,
  0x64, 0x00, 0x3a, 0x3e, 0x90, 0x6f, 0x32, 0xbe, 0x31, 0x34, 0x12, 0xbe,
  0x5c, 0xf3, 0x11, 0xbd, 0x18, 0x70, 0x97, 0x3d, 0x58, 0xa9, 0x5c, 0xbe,
  0x50, 0x81, 0xa0, 0x3d, 0x08, 0xe5, 0xf1, 0xbc, 0xd4, 0x4b, 0xa8, 0x3d,
  0xb0, 0x60, 0x65, 0x3d, 0xa0, 0xcc, 0x73, 0xbc, 0x02, 0xe6, 0xfe, 0xbd,
  0xc8, 0x0d, 0xb2, 0xbd, 0x92, 0x8b, 0x14, 0x3e, 0x48, 0x8c, 0x87, 0x3d,
  0xc8, 0xfa, 0x23, 0x3e, 0x98, 0x51, 0x1e, 0x3d, 0x38, 0x12, 0x2d, 0x3e,
  0x97, 0xe0, 0x5a, 0xbe, 0x72, 0xaa, 0x86, 0xbd, 0xa6, 0x0b, 0xb5, 0xbd,
  0x94, 0xd5, 0x57, 0xbe, 0x1c, 0xc4, 0x27, 0x3e, 0x65, 0x66, 0x13, 0xbe,
  0x4d, 0xd6, 0x4f, 0xbe, 0x00, 0x24, 0x43, 0x3b, 0x5e, 0x72, 0x11, 0x3e,
  0x66, 0xb2, 0x83, 0xbd, 0x90, 0x66, 0x0a, 0xbd, 0xcc, 0x91, 0x1d, 0xbe,
  0x60, 0xeb, 0x1c, 0xbe, 0x52, 0x77, 0xec, 0xbd, 0xd0, 0x98, 0x20, 0xbc,
  0x0c, 0x70, 0x10, 0xbd, 0x98, 0x06, 0x38, 0x3d, 0xe5, 0xab, 0xf7, 0xbd,
  0x70, 0x61, 0xb9, 0x3c, 0x20, 0xb6, 0x58, 0xbd, 0xb6, 0xe0, 0x11, 0xbe,
  0x06, 0x74, 0xa6, 0xbd, 0xb4, 0x46, 0xef, 0x3d, 0xec, 0x30, 0xf6, 0x3d,
  0x40, 0xcf, 0x2c, 0x3e, 0x4c, 0x9a, 0x56, 0xbe, 0x3a, 0xcc, 0x1c, 0x3e,
  0x7a, 0xed, 0x35, 0x3e, 0xf8, 0x40, 0x07, 0x3e, 0x06, 0xf2, 0x1c, 0xbe,
  0x18, 0xf2, 0x93, 0xbd, 0xb8, 0x45, 0x43, 0xbe, 0x0a, 0x17, 0x3c, 0xbe,
  0xa0, 0x50, 0xa3, 0xbc, 0x84, 0xc3, 0x1e, 0x3e, 0x10, 0xf4, 0x82, 0xbd,
  0xd8, 0x08, 0x05, 0x3e, 0xe0, 0xee, 0xfb, 0x3c, 0xec, 0x0e, 0x09, 0x3e,
  0xd0, 0x70, 0x3c, 0xbc, 0xb8, 0x4f, 0x15, 0x3d, 0xe2, 0x7c, 0xc4, 0xbd,
  0x51, 0x19, 0x58, 0xbe, 0x58, 0xf2, 0x4f, 0x3d, 0x8a, 0x29, 0x1e, 0xbe,
  0x04, 0x41, 0x4a, 0x3e, 0xc0, 0x18, 0x29, 0xbd, 0x90, 0x61, 0x4c, 0x3e,
  0x26, 0x0c, 0x5f, 0x3e, 0xfd, 0x37, 0x2b, 0xbe, 0x78, 0xbd, 0x83, 0x3c,
  0x20, 0x40, 0xfc, 0x3b, 0xbc, 0x70, 0x8a, 0x3d, 0x94, 0xcc, 0x03, 0x3e,
  0x38, 0x94, 0xc0, 0xbc, 0xa4, 0xf9, 0xa7, 0xbe, 0xfa, 0x28, 0x38, 0xbe,
  0x54, 0x2d, 0x9a, 0xbe, 0x4b, 0x7d, 0x5b, 0xbe, 0xcd, 0xbc, 0x7f, 0x3d,
  0xf7, 0x49, 0x00, 0x3f, 0x7f, 0x8e, 0x94, 0x3e, 0xbd, 0x55, 0x75, 0x3e,
  0xe4, 0xa9, 0xc6, 0x3e, 0xb5, 0x32, 0x65, 0x3e, 0xe8, 0xfc, 0x60, 0xbe,
  0x4b, 0xe1, 0xac, 0x3e, 0x87, 0x73, 0xbc, 0xbd, 0x66, 0xd1, 0x42, 0xbe,
  0xd6, 0x32, 0x3d, 0xbe, 0xf4, 0x29, 0x41, 0x3b, 0xbe, 0x00, 0x65, 0xbe,
  0x1a, 0x47, 0x46, 0xbe, 0xe2, 0x2d, 0x80, 0xbd, 0x13, 0x08, 0x77, 0xbe,
  0x1f, 0x2e, 0xf8, 0x3d, 0x83, 0x3a, 0x5a, 0x3d, 0xc6, 0xad, 0xd3, 0xbd,
  0x45, 0x9a, 0xe4, 0xbd, 0x3d, 0xf7, 0xa5, 0x3c, 0x37, 0x08, 0x58, 0xbe,
  0xc7, 0xce, 0x33, 0x3e, 0xe6, 0xbe, 0x46, 0xbd, 0x50, 0xb0, 0xcd, 0xbc,
  0x6c, 0x2b, 0xbd, 0xbd, 0xe7, 0x2d, 0x64, 0xbe, 0x14, 0x46, 0xc9, 0xbd,
  0x3e, 0xfa, 0x1d, 0x3d, 0xb0, 0xbf, 0x48, 0x3d, 0xbe, 0x29, 0x00, 0xbe,
  0x35, 0x6d, 0x4b, 0x3f, 0xe7, 0xa3, 0x56, 0x3e, 0x04, 0xbf, 0xd4, 0x3e,
  0x75, 0x4c, 0xdb, 0xbd, 0xeb, 0x8c, 0x92, 0x3c, 0x49, 0xf0, 0xfa, 0xbd,
  0xf3, 0x37, 0x1e, 0x3e, 0x2f, 0x88, 0x36, 0xbd, 0x5d, 0x83, 0x1b, 0xbe,
  0x98, 0xa1, 0x6d, 0xbe, 0x07, 0x30, 0x3a, 0xbe, 0x31, 0x62, 0x3b, 0xbd,
  0x87, 0xd7, 0x7f, 0x3d, 0xa0, 0x50, 0xe5, 0x3b, 0x17, 0x18, 0x0f, 0x3d,
  0x72, 0x21, 0x9b, 0x3e, 0x00, 0x74, 0x77, 0x3e, 0x46, 0xeb, 0xc3, 0x3c,
  0x4f, 0x7e, 0xc5, 0xbd, 0x09, 0x43, 0x9d, 0xbd, 0xed, 0xaf, 0xf4, 0x3d,
  0xdb, 0xa8, 0xff, 0x3d, 0x31, 0x54, 0xb5, 0xbd, 0xaf, 0x77, 0x49, 0xbd,
  0x3c, 0xfa, 0x51, 0xbe, 0x40, 0xe8, 0x23, 0xbd, 0x0d, 0x12, 0x27, 0xbe,
  0x81, 0xa0, 0x0a, 0xbd, 0x9c, 0xf5, 0x63, 0xbd, 0x67, 0xcb, 0xff, 0x3c,
  0x3e, 0x43, 0xb3, 0x3e, 0x30, 0x85, 0x36, 0x3e, 0x84, 0x74, 0x38, 0x3e,
  0x56, 0xd2, 0x2c, 0xbd, 0x65, 0xe8, 0xf6, 0xbd, 0x40, 0xa6, 0xf6, 0x3c,
  0xf9, 0x40, 0x42, 0x3d, 0x58, 0xcd, 0x81, 0x3d, 0xb4, 0xa6, 0x4d, 0xbd,
  0x69, 0x23, 0xe6, 0xbd, 0xed, 0x87, 0x9c, 0xbe, 0x10, 0x4f, 0x23, 0xbe,
  0xcb, 0xd5, 0x87, 0xbe, 0x60, 0xa0, 0x38, 0x3c, 0xfb, 0x41, 0x46, 0xbe,
  0xe4, 0x0f, 0x18, 0x3d, 0xa8, 0x00, 0x00, 0x3e, 0xbe, 0xf6, 0x66, 0xbe,
  0xea, 0x44, 0x25, 0x3e, 0x98, 0xb2, 0x3e, 0xbe, 0x71, 0x59, 0x63, 0xba,
  0x6e, 0x9d, 0x1e, 0x3d, 0x5d, 0xf1, 0x91, 0xbd, 0xf8, 0x80, 0x22, 0xbd,
  0x34, 0xef, 0x3c, 0x3d, 0x0d, 0xdb, 0x29, 0xbe, 0x3d, 0x00, 0x88, 0x3e,
  0x28, 0x5b, 0xaf, 0x3c, 0xa4, 0xdc, 0xdf, 0x3d, 0x31, 0x17, 0x79, 0xbe,
  0x11, 0x0b, 0x3e, 0x3f, 0xc2, 0xa5, 0x26, 0x3e, 0x79, 0x5b, 0xa1, 0x3e,
  0x90, 0xd5, 0x81, 0x3d, 0x50, 0xd4, 0xf3, 0xbd, 0x22, 0x60, 0x3b, 0x3e,
  0x00, 0x02, 0x87, 0x3e, 0xf6, 0xa9, 0x0f, 0x3d, 0x5d, 0x56, 0x10, 0xbe,
  0xf5, 0x53, 0x20, 0xbe, 0xe5, 0xda, 0x7e, 0xbe, 0xb2, 0x9e, 0x5a, 0xbe,
  0x39, 0xce, 0x1d, 0xbe, 0x26, 0x96, 0x38, 0xbe, 0x59, 0xdb, 0x61, 0xbe,
  0x3d, 0x69, 0xb2, 0x3e, 0xc8, 0x65, 0x6a, 0x3e, 0xf5, 0x0a, 0xdf, 0x3d,
  0xac, 0xb3, 0xe0, 0x3c, 0x96, 0xc6, 0xc2, 0xba, 0x2c, 0x1d, 0xbf, 0x3d,
  0xbc, 0x96, 0xa2, 0xbd, 0x51, 0x41, 0x71, 0xbe, 0x0b, 0x6b, 0x36, 0xbc,
  0x5c, 0xe4, 0x37, 0x3d, 0xae, 0xee, 0x03, 0x3e, 0xbd, 0x63, 0xee, 0xbd,
  0x6f, 0xb3, 0xcb, 0xbc, 0xc8, 0x59, 0xd3, 0x3d, 0x4d, 0x56, 0x09, 0xbe,
  0x23, 0xad, 0xd4, 0x3e, 0x85, 0x8d, 0x19, 0x3d, 0xa7, 0x97, 0xd5, 0x3e,
  0x64, 0x87, 0x82, 0xbe, 0xb6, 0xb0, 0x62, 0xbd, 0x9f, 0x02, 0x05, 0xbd,
  0x8c, 0x5d, 0x9e, 0x3e, 0xdf, 0x6a, 0x8c, 0x3d, 0x54, 0x6c, 0x1c, 0x3e,
  0x4d, 0xf3, 0xaf, 0x3d, 0x0d, 0x68, 0x4c, 0xbc, 0x34, 0xf7, 0x02, 0x3c,
  0xb8, 0x66, 0x6f, 0xbd, 0x10, 0xfe, 0x57, 0x3e, 0xf2, 0x61, 0x46, 0xbd,
  0x45, 0x5a, 0xb7, 0x3e, 0xfe, 0x8e, 0x6b, 0x3d, 0xab, 0xfe, 0x19, 0x3e,
  0xda, 0x10, 0xfb, 0xbd, 0xa2, 0x6b, 0xa2, 0xbd, 0xb8, 0xd9, 0x26, 0xbe,
  0x08, 0xc7, 0xa4, 0x3d, 0x6e, 0x8c, 0x22, 0xbe, 0x62, 0xcb, 0x79, 0x3c,
  0x2f, 0x36, 0x11, 0xbe, 0x41, 0xe7, 0xb7, 0x3c, 0x1d, 0xe4, 0x2f, 0xbe,
  0x0b, 0x9d, 0x83, 0x3d, 0xd4, 0x58, 0x1c, 0x3e, 0xc3, 0x7a, 0x0c, 0x3e,
  0x12, 0x8a, 0xa5, 0x3e, 0xa9, 0x58, 0xf3, 0x3d, 0xa9, 0x0d, 0x9d, 0x3e,
  0x4b, 0x5f, 0xd4, 0xbd, 0x1d, 0x35, 0x31, 0xbe, 0x5c, 0xd1, 0x0e, 0xbf,
  0x91, 0x21, 0xf6, 0xbd, 0xe4, 0x6e, 0x7c, 0xbe, 0x0e, 0x6c, 0x20, 0xbd,
  0xde, 0x1f, 0x70, 0x3d, 0xd4, 0xf0, 0x88, 0xbe, 0x96, 0xa6, 0x11, 0x3e,
  0x0a, 0x6e, 0x09, 0xbe, 0x80, 0x83, 0xad, 0xbd, 0x33, 0x97, 0x74, 0x3d,
  0xf7, 0xfc, 0xec, 0x3e, 0x3c, 0xda, 0x2e, 0x3e, 0xad, 0x6f, 0xed, 0x3c,
  0x83, 0x70, 0xc7, 0x3c, 0x44, 0x20, 0xb2, 0xbb, 0x7d, 0xf5, 0x59, 0x3e,
  0xaf, 0x8e, 0x85, 0xbd, 0x3b, 0xec, 0x00, 0xbe, 0xec, 0xdf, 0x58, 0xbe,
  0x0b, 0x10, 0x59, 0xbd, 0xbf, 0x57, 0x8f, 0x3d, 0x43, 0x78, 0x20, 0xbe,
  0x49, 0x51, 0x7d, 0x3c, 0x04, 0xce, 0x46, 0x3e, 0xbd, 0xa7, 0xe1, 0x3d,
  0xb7, 0x25, 0xdd, 0x3b, 0x32, 0x22, 0x02, 0x3e, 0x63, 0x0f, 0x91, 0xbd,
  0x44, 0x26, 0xc7, 0xbc, 0x91, 0xf0, 0xb9, 0xbd, 0x5e, 0x5e, 0xf1, 0xbd,
  0x8c, 0xb7, 0xcd, 0xbd, 0x61, 0x46, 0x8a, 0x3d, 0x62, 0x7f, 0x7c, 0xbe,
  0xfc, 0xba, 0x98, 0xbc, 0xf9, 0x7d, 0x33, 0xbe, 0x98, 0x73, 0x95, 0xbd,
  0x2d, 0xda, 0xfe, 0x3b, 0x9e, 0x2d, 0x32, 0x3e, 0xf3, 0xb4, 0x4f, 0xbe,
  0xb9, 0xbc, 0x94, 0x3d, 0x79, 0xc3, 0x67, 0xbe, 0x12, 0x61, 0x51, 0xbd,
  0xc6, 0x97, 0xf2, 0xbd, 0xaf, 0xa9, 0xd6, 0x3d, 0x2a, 0xe8, 0x1b, 0xbe,
  0x06, 0x42, 0xf1, 0xbd, 0x39, 0x51, 0x17, 0x3e, 0x90, 0x94, 0x27, 0xbc,
  0x7e, 0x90, 0xc2, 0x3d, 0xf2, 0x67, 0x87, 0xbe, 0xd5, 0xd6, 0x40, 0x3e,
  0xcc, 0xa0, 0x11, 0xbe, 0xe6, 0xa6, 0xbc, 0xbd, 0xa1, 0xee, 0x28, 0xbe,
  0x20, 0xd5, 0x03, 0x3f, 0xe8, 0x40, 0x27, 0x3e, 0x34, 0x4e, 0x97, 0x3e,
  0x20, 0x11, 0xe6, 0x3b, 0xa3, 0x2e, 0x4c, 0x3d, 0x3a, 0x13, 0x85, 0x3e,
  0x4f, 0x3a, 0xa6, 0x3d, 0x0f, 0x6f, 0x36, 0xbe, 0x6e, 0x55, 0xec, 0xbd,
  0x0b, 0xbf, 0xb2, 0x3d, 0xe9, 0xef, 0x81, 0xbe, 0x27, 0xf9, 0x83, 0xbe,
  0x18, 0x6c, 0x03, 0xbe, 0xd4, 0x1a, 0x12, 0x3e, 0x71, 0x51, 0x74, 0x3c,
  0xfb, 0x51, 0x5b, 0x3e, 0x06, 0xb5, 0x28, 0x3e, 0x0a, 0x8e, 0x70, 0x3d,
  0xc3, 0xe0, 0xf3, 0xbe, 0x57, 0x51, 0xe5, 0xbd, 0xc5, 0x20, 0x1f, 0x3e,
  0x61, 0x18, 0xa0, 0x3d, 0xfd, 0x8d, 0x85, 0xbe, 0x58, 0xbd, 0xa2, 0xbc,
  0x2b, 0x80, 0xfa, 0x3d, 0x70, 0x58, 0x88, 0x3d, 0xf8, 0xa1, 0x96, 0xbd,
  0xa4, 0x3e, 0x37, 0x3c, 0x18, 0x40, 0x0e, 0x3e, 0x65, 0x63, 0x69, 0x3c,
  0x92, 0xdf, 0x02, 0x3f, 0x57, 0xa8, 0xd0, 0x3e, 0xbf, 0x8c, 0x48, 0x3e,
  0x7e, 0x94, 0x0d, 0x3e, 0x89, 0xdb, 0xf2, 0x3d, 0x74, 0x12, 0x0d, 0x3d,
  0x68, 0x3b, 0x6e, 0x3d, 0xb0, 0x40, 0x1b, 0x3e, 0x56, 0xc0, 0x90, 0xbe,
  0x3a, 0x9f, 0xe6, 0x3d, 0xb8, 0xb4, 0x11, 0x3e, 0xe0, 0xa3, 0x33, 0x3e,
  0x47, 0xa4, 0xc2, 0x3d, 0x4e, 0xb1, 0x60, 0x3e, 0x59, 0xe8, 0x76, 0xbd,
  0xb3, 0x1a, 0x6e, 0x3d, 0x98, 0x00, 0xb2, 0x3d, 0xdc, 0x84, 0xcd, 0x3c,
  0xc9, 0x8d, 0x03, 0xbe, 0x7d, 0xb2, 0x82, 0xbe, 0x23, 0x05, 0x8f, 0xbd,
  0x11, 0x32, 0x34, 0x3e, 0x9d, 0xb9, 0x26, 0xbd, 0x1f, 0xde, 0xaf, 0x3d,
  0x43, 0xfe, 0x28, 0x3d, 0x00, 0x32, 0xbd, 0xbc, 0xf6, 0x1b, 0x9a, 0xbd,
  0x6c, 0x14, 0x46, 0xbe, 0xf0, 0x2c, 0x77, 0xbd, 0x7a, 0x41, 0x15, 0x3e,
  0x44, 0xf7, 0x9c, 0xbd, 0x02, 0xe2, 0x54, 0xbe, 0x00, 0xf5, 0x21, 0x3c,
  0xa0, 0xe2, 0x55, 0x3d, 0xe4, 0x70, 0xed, 0xbd, 0xe8, 0xa9, 0xd9, 0xbc,
  0x70, 0x40, 0x4b, 0xbd, 0x4c, 0xc7, 0x3a, 0x3e, 0x28, 0xa2, 0x1b, 0xbd,
  0x40, 0x4d, 0x22, 0x3c, 0xa4, 0x18, 0xc2, 0xbd, 0x1c, 0xd8, 0x4a, 0x3e,
  0x64, 0xae, 0xc0, 0xbd, 0xf8, 0x1e, 0x4e, 0x3d, 0xd0, 0xa0, 0x58, 0xbe,
  0xac, 0x35, 0x22, 0x3e, 0xcd, 0x24, 0x06, 0xbe, 0xf0, 0x7e, 0xfe, 0x3d,
  0x2f, 0x4a, 0x4c, 0xbe, 0xb4, 0xc0, 0x05, 0x3e, 0x90, 0xd7, 0x7c, 0xbd,
  0xfe, 0xd0, 0x10, 0x3e, 0xb6, 0x0d, 0x3b, 0x3e, 0x07, 0x22, 0x55, 0xbe,
  0xbc, 0x4f, 0x2e, 0xbe, 0xe4, 0xb6, 0x5e, 0x3e, 0x09, 0x71, 0x4e, 0xbe,
  0x5c, 0x61, 0xeb, 0x3d, 0xd0, 0x16, 0x5b, 0xbe, 0x1c, 0x2d, 0xd5, 0x3d,
  0xa8, 0x96, 0xae, 0x3d, 0xa8, 0xf7, 0x17, 0x3e, 0xf8, 0xa3, 0xf1, 0xbc,
  0xfc, 0xda, 0xce, 0x3d, 0xa6, 0xa1, 0x00, 0xbe, 0x67, 0xcf, 0xd2, 0xbd,
  0x70, 0xe2, 0x5c, 0xbd, 0xd8, 0xf1, 0xf9, 0x3d, 0xe2, 0xd2, 0x41, 0x3e,
  0x1e, 0xfe, 0xb1, 0xbd, 0x2e, 0x87, 0x1e, 0xbe, 0x7e, 0x23, 0x35, 0x3e,
  0xc8, 0xd2, 0xc2, 0x3d, 0x0b, 0xa8, 0x54, 0xbe, 0xcc, 0x3f, 0x27, 0xbe,
  0x74, 0x8e, 0x51, 0xbd, 0x40, 0xdb, 0xe4, 0x3c, 0xed, 0x15, 0x38, 0xbe,
  0x08, 0xca, 0x04, 0x3e, 0xb0, 0xf2, 0xbe, 0xbd, 0x37, 0x7b, 0x37, 0xbe,
  0xa6, 0xd2, 0x8e, 0xbd, 0x2c, 0xd0, 0xc9, 0x3d, 0x64, 0x18, 0x30, 0xbe,
  0x70, 0xeb, 0x31, 0x3d, 0xb0, 0xd2, 0x7d, 0x3c, 0x20, 0xda, 0x89, 0x3d,
  0x5b, 0x25, 0xdf, 0xbd, 0x28, 0xed, 0x4c, 0x3d, 0xb6, 0x67, 0x47, 0x3e,
  0xe0, 0x07, 0xae, 0x3c, 0x98, 0x53, 0xbc, 0x3d, 0x80, 0x68, 0x15, 0xbc,
  0xc4, 0x3b, 0x0e, 0xbd, 0xb8, 0x86, 0xe6, 0x3d, 0xc3, 0xbd, 0xca, 0xbd,
  0x68, 0x5c, 0x0c, 0x3e, 0xe0, 0x01, 0x97, 0x3c, 0xde, 0xd5, 0x28, 0xbe,
  0x98, 0xa7, 0xe3, 0x3d, 0xe4, 0xcc, 0x1b, 0xbe, 0x10, 0x52, 0x37, 0xbe,
  0x20, 0x75, 0xfb, 0xbd, 0xb8, 0x03, 0x30, 0xbd, 0x58, 0xee, 0x5d, 0x3d,
  0x18, 0x9b, 0x2d, 0xbd, 0xf0, 0x44, 0x9b, 0xbd, 0x78, 0x5b, 0x1d, 0xbd,
  0x40, 0xb3, 0x02, 0xbb, 0xee, 0x7e, 0xbf, 0xbd, 0xac, 0x61, 0x04, 0xbe,
  0x70, 0x73, 0x93, 0xbd, 0x48, 0x7b, 0x8b, 0x3c, 0x84, 0x03, 0x9b, 0xbd,
  0xc0, 0x7b, 0x91, 0xbd, 0xff, 0x1c, 0x03, 0x3e, 0xa7, 0x33, 0x08, 0xbe,
  0xd3, 0x06, 0x5c, 0xbe, 0xfe, 0xd7, 0x5f, 0x3e, 0x55, 0x5c, 0x30, 0xbe,
  0xdc, 0x84, 0x35, 0xbe, 0x0d, 0x40, 0x1f, 0xbd, 0xe5, 0x23, 0x21, 0x3e,
  0x44, 0xfe, 0x6f, 0xbc, 0x45, 0x1d, 0x8d, 0x3d, 0x1e, 0xd2, 0xfc, 0x3d,
  0xf8, 0x36, 0x7d, 0x3c, 0x9e, 0xe8, 0xa7, 0x3d, 0x47, 0x3b, 0xba, 0x3d,
  0xa4, 0x1c, 0x38, 0x3d, 0x45, 0x0d, 0x09, 0x3e, 0xf8, 0x6c, 0xe7, 0x3c,
  0x61, 0xd6, 0xdd, 0xbd, 0x88, 0x81, 0xef, 0x3d, 0xd8, 0xc1, 0x76, 0xbe,
  0xf9, 0x36, 0x77, 0xbe, 0xe4, 0x95, 0xf7, 0x3d, 0xe4, 0xbc, 0x25, 0xbe,
  0x99, 0x3b, 0x7e, 0xbe, 0x63, 0xd7, 0xd6, 0x3d, 0x13, 0x0b, 0x8a, 0x3c,
  0x86, 0x67, 0x0c, 0xbd, 0xb2, 0xd0, 0xec, 0x3d, 0x01, 0x2d, 0x44, 0xbe,
  0x22, 0xb4, 0x6f, 0xbc, 0xba, 0x5a, 0xbb, 0x3d, 0x97, 0x29, 0xf6, 0xbd,
  0x47, 0xc7, 0x7b, 0x3c, 0xb4, 0xf1, 0xb3, 0x3d, 0x59, 0x73, 0xa5, 0x3c,
  0xba, 0xba, 0x35, 0x3e, 0x16, 0x08, 0x54, 0xbe, 0x13, 0x95, 0x18, 0xbe,
  0xb0, 0x18, 0xff, 0x3c, 0x9b, 0x11, 0x14, 0xbe, 0x89, 0x7d, 0xa5, 0x3d,
  0x1e, 0x1b, 0x07, 0xbe, 0x87, 0xe6, 0x20, 0xbe, 0x0d, 0xf9, 0xea, 0xbd,
  0x24, 0xe3, 0xad, 0xbd, 0x2b, 0xf0, 0x40, 0xbe, 0xe2, 0xb5, 0x44, 0x3c,
  0xee, 0x91, 0x3f, 0xbe, 0xd2, 0x7b, 0x06, 0x3e, 0x6f, 0x24, 0x02, 0xbe,
  0x41, 0x12, 0x22, 0x3e, 0x5e, 0x24, 0x4c, 0xbe, 0x57, 0x38, 0x1d, 0x3e,
  0xb2, 0x5f, 0xf7, 0x3d, 0x8f, 0xa7, 0xb3, 0x3d, 0x3f, 0xd3, 0x2d, 0x3e,
  0xae, 0x06, 0x8d, 0x3d, 0xc3, 0xc1, 0x7c, 0xbe, 0x70, 0xf2, 0x1d, 0x3e,
  0x6f, 0x34, 0x51, 0xbd, 0x2c, 0xa5, 0xb0, 0x3d, 0xbb, 0x10, 0x27, 0xbe,
  0xcb, 0xe1, 0x10, 0x3e, 0x4a, 0x9a, 0x2d, 0x3e, 0x3a, 0x0b, 0xca, 0xbc,
  0x9e, 0x1e, 0x39, 0xbe, 0x74, 0xc2, 0x2e, 0xbe, 0x16, 0xb5, 0xd4, 0x3d,
  0x74, 0xbb, 0x4f, 0xbe, 0xc2, 0x49, 0xe2, 0x3d, 0x2a, 0xa6, 0x0f, 0xbd,
  0xf8, 0xce, 0x81, 0xbe, 0xd4, 0x0b, 0xef, 0xbd, 0xff, 0x0c, 0x7e, 0x3d,
  0x00, 0x79, 0x12, 0xbe, 0xa5, 0xbd, 0x34, 0xbe, 0xe4, 0x9f, 0x96, 0x3d,
  0x12, 0x6e, 0xee, 0xbd, 0x70, 0x97, 0x40, 0xbd, 0x87, 0xfd, 0xad, 0x3d,
  0xe0, 0x58, 0xc7, 0x3c, 0xc5, 0x0d, 0x44, 0xbe, 0x43, 0x1c, 0x52, 0x3d,
  0x2c, 0x70, 0x39, 0xbe, 0xcd, 0x40, 0x66, 0xbd, 0xbc, 0x29, 0x89, 0xbd,
  0x91, 0xbc, 0x52, 0xbe, 0x7a, 0x53, 0x7f, 0x3c, 0x10, 0x7b, 0x29, 0x3e,
  0xee, 0xa4, 0xfb, 0xbd, 0x06, 0xf4, 0xbd, 0xbd, 0xfc, 0x08, 0x0b, 0x3e,
  0xc8, 0xd4, 0xe2, 0xbe, 0x20, 0xd3, 0x57, 0xbe, 0xf7, 0x3d, 0xb0, 0xbd,
  0x5c, 0x14, 0x75, 0x3f, 0xc4, 0x60, 0xdb, 0x3e, 0x60, 0x70, 0xdd, 0x3e,
  0x5b, 0x0a, 0x40, 0x3e, 0x9c, 0x15, 0x02, 0xbe, 0x7a, 0xba, 0xe9, 0xbd,
  0x0f, 0xb0, 0x83, 0x3e, 0xea, 0xef, 0xa4, 0xbe, 0xb1, 0x0a, 0x2f, 0x3d,
  0x11, 0x2c, 0xf7, 0xbc, 0xef, 0xbb, 0x8d, 0xbd, 0xad, 0x15, 0xcd, 0xbb,
  0xad, 0x24, 0xf2, 0xbb, 0xc8, 0xc6, 0xbf, 0xbd, 0x5f, 0x83, 0xb7, 0x3b,
  0xc2, 0x82, 0x79, 0x3f, 0x86, 0xfb, 0x6a, 0x3e, 0x31, 0x22, 0x11, 0x3f,
  0x3d, 0xa9, 0x89, 0xbc, 0xdc, 0x9a, 0x94, 0x3d, 0x69, 0xd8, 0xba, 0x3c,
  0x52, 0x15, 0xa8, 0x3e, 0xac, 0x18, 0x3f, 0xbe, 0x7a, 0x77, 0x09, 0xbd,
  0x18, 0x89, 0x75, 0xbe, 0xd2, 0xc3, 0x80, 0xbe, 0xc3, 0x47, 0x01, 0x3e,
  0xe4, 0x2a, 0x95, 0xbe, 0xfe, 0x74, 0x0c, 0xbe, 0x4b, 0xd5, 0x4d, 0xbe,
  0x1d, 0x88, 0x4d, 0x3f, 0xb7, 0xf1, 0x96, 0x3d, 0x8b, 0x41, 0xe9, 0x3e,
  0x92, 0xfc, 0x63, 0xbe, 0x47, 0x8b, 0xb5, 0x3d, 0xd1, 0x9c, 0x13, 0x3d,
  0x6b, 0xc4, 0xc5, 0x3e, 0x80, 0x63, 0x02, 0xbf, 0x74, 0xa9, 0x2d, 0xbe,
  0x83, 0xeb, 0x4f, 0xbe, 0xf3, 0x1d, 0x3e, 0xbd, 0xb7, 0xc3, 0xa9, 0xbe,
  0xab, 0xba, 0x0f, 0xbe, 0xac, 0x7f, 0x06, 0xbe, 0x44, 0xb1, 0x89, 0xbe,
  0xce, 0x74, 0x0e, 0xbc, 0x81, 0x00, 0xc6, 0x3d, 0x37, 0xa5, 0x0e, 0xbe,
  0x66, 0x20, 0x1c, 0x3e, 0xe8, 0x35, 0xaa, 0xbd, 0x05, 0xf8, 0xc8, 0xbb,
  0x78, 0x07, 0x8b, 0xbe, 0xad, 0x7a, 0x99, 0xbd, 0x53, 0xfb, 0xa9, 0xbd,
  0xe4, 0xea, 0x56, 0xbe, 0x23, 0x40, 0x3b, 0xbe, 0x92, 0xd5, 0xbc, 0x3c,
  0xc4, 0xe4, 0xc3, 0xbd, 0x7c, 0xa0, 0x23, 0x3e, 0x3d, 0xa0, 0x93, 0xbe,
  0xd2, 0x54, 0x2f, 0x3f, 0xf4, 0x1b, 0x98, 0x3e, 0x0a, 0x53, 0xbe, 0xbd,
  0x22, 0xed, 0x87, 0xbd, 0x5c, 0xaf, 0x9a, 0xbe, 0xc3, 0x25, 0x2a, 0xbd,
  0x7c, 0x7e, 0x08, 0xbd, 0xfc, 0x5a, 0xc0, 0xbe, 0x1d, 0x55, 0xed, 0x3b,
  0xd9, 0x3c, 0xe3, 0xbe, 0xfc, 0x6c, 0xa9, 0xbe, 0x9f, 0xeb, 0x87, 0xbe,
  0x23, 0x64, 0xd7, 0xbe, 0x16, 0x93, 0x15, 0xbe, 0xc3, 0xac, 0x93, 0xbe,
  0xe8, 0xc9, 0xdc, 0x3e, 0x05, 0x42, 0x60, 0x3d, 0xb6, 0xc2, 0x24, 0x3e,
  0xa9, 0x89, 0x24, 0x3d, 0x4b, 0x51, 0x0f, 0xbe, 0xb8, 0x81, 0x52, 0x3d,
  0xae, 0x8b, 0x36, 0x3e, 0x1d, 0x92, 0x25, 0xbe, 0xf2, 0x29, 0x11, 0xbd,
  0x1f, 0x05, 0x9e, 0xbd, 0x72, 0x35, 0x25, 0x3e, 0xfd, 0x1f, 0x21, 0xbe,
  0xdb, 0x92, 0x8c, 0x38, 0xfc, 0x1e, 0x8a, 0x3d, 0xd7, 0xa3, 0x57, 0xbe,
  0xe8, 0xbf, 0x0b, 0x3e, 0x57, 0x57, 0x04, 0x3e, 0xfb, 0xef, 0xd4, 0x3d,
  0xf0, 0x53, 0x90, 0x3d, 0x9d, 0x11, 0x36, 0xbd, 0xa2, 0xfa, 0x54, 0xbe,
  0xe1, 0x15, 0x1d, 0x3e, 0x07, 0x67, 0xbe, 0xbc, 0xcf, 0x27, 0xbd, 0xbd,
  0xc7, 0xfb, 0xe1, 0xbd, 0xfd, 0xc6, 0xc9, 0xbd, 0x45, 0xb6, 0x51, 0x3d,
  0x1b, 0x25, 0xae, 0x3d, 0x38, 0x72, 0xe8, 0x3d, 0xb6, 0x9d, 0x13, 0x3e,
  0x6d, 0x4a, 0xef, 0x3d, 0x39, 0x2a, 0xbd, 0xbd, 0x20, 0x1f, 0x55, 0xbd,
  0xdf, 0xa6, 0x42, 0xbd, 0x35, 0xd0, 0x60, 0xbe, 0x76, 0x6f, 0xf8, 0x3d,
  0x86, 0xb1, 0x30, 0x3e, 0x72, 0xc3, 0x16, 0xbe, 0x90, 0x55, 0xda, 0x3c,
  0x81, 0x66, 0xaa, 0x3c, 0xd2, 0x63, 0x07, 0xbe, 0xb2, 0xc8, 0xd8, 0x3d,
  0x32, 0xbe, 0x86, 0x3d, 0x40, 0xac, 0x07, 0xbb, 0x53, 0x94, 0x52, 0x3e,
  0x5b, 0x26, 0x43, 0xbe, 0xb8, 0xab, 0xd4, 0x3c, 0x4c, 0xdb, 0x10, 0xbe,
  0x82, 0x3d, 0x05, 0xbe, 0xbf, 0xfe, 0x4c, 0x3d, 0x0d, 0x2e, 0x5d, 0xbe,
  0x47, 0xcd, 0x0c, 0x3e, 0xa5, 0xcc, 0x0c, 0x3e, 0xb6, 0xda, 0x20, 0x3d,
  0xd6, 0x4c, 0x3b, 0x3e, 0x88, 0x7c, 0xdb, 0x3c, 0xe4, 0x76, 0xf3, 0x3d,
  0x0b, 0xf4, 0x1d, 0xbe, 0xdc, 0xc8, 0xf4, 0x3d, 0x9c, 0xf3, 0x39, 0xbe,
  0x9b, 0x3a, 0x13, 0xbe, 0x05, 0x64, 0xd7, 0x3d, 0x36, 0xe2, 0xca, 0x3d,
  0x16, 0x7c, 0x4a, 0xbe, 0x1b, 0x84, 0x1f, 0xbe, 0xdc, 0xef, 0x9d, 0x3c,
  0x0b, 0x9a, 0x93, 0xbc, 0xfd, 0x77, 0x69, 0xbd, 0x56, 0x89, 0xd3, 0xbd,
  0x33, 0x29, 0x1a, 0xbd, 0x65, 0x4b, 0x12, 0xbd, 0xec, 0xf6, 0x1e, 0xbd,
  0x7f, 0x61, 0xe0, 0x3d, 0x1d, 0xee, 0xd0, 0xbd, 0x39, 0xd4, 0x2d, 0x3e,
  0xd1, 0x56, 0x50, 0x3e, 0x21, 0xdc, 0xc1, 0x3d, 0xaa, 0x75, 0x57, 0xbe,
  0x91, 0x46, 0x8b, 0xbc, 0xf4, 0x7d, 0xff, 0x3d, 0x1a, 0xb3, 0xf1, 0xbd,
  0x89, 0x14, 0x89, 0xbd, 0x2c, 0xad, 0x5a, 0xbe, 0x74, 0x6c, 0xb2, 0xbd,
  0x9b, 0x44, 0x60, 0xbe, 0xbc, 0xb4, 0xd3, 0xbd, 0xd4, 0x24, 0xe4, 0xbd,
  0xe9, 0x9f, 0x16, 0x3c, 0x78, 0x07, 0x24, 0xbd, 0x08, 0xc1, 0x51, 0x3e,
  0x5f, 0x50, 0x1e, 0xbe, 0xdd, 0x71, 0x37, 0xbe, 0xf1, 0xf8, 0xe4, 0x3d,
  0x1c, 0xd7, 0x91, 0x3d, 0xc6, 0x60, 0xb8, 0x3d, 0xf0, 0x18, 0xa9, 0xbb,
  0xe1, 0x90, 0x3d, 0x3e, 0xdf, 0x2b, 0x67, 0x3d, 0xda, 0xf3, 0x90, 0x3d,
  0x35, 0xce, 0x28, 0x3e, 0x6d, 0x8a, 0x6e, 0xbe, 0x9c, 0x81, 0x21, 0x3e,
  0xfc, 0x5c, 0x2c, 0x3e, 0xe0, 0x3d, 0xa1, 0x3b, 0x80, 0x03, 0x84, 0xbd,
  0x47, 0x33, 0x5a, 0xbd, 0x7c, 0x0a, 0x22, 0x3d, 0xbd, 0x5c, 0xb5, 0x3c,
  0xeb, 0xf4, 0xb5, 0x3d, 0xb4, 0xdb, 0x07, 0x3f, 0x85, 0x2e, 0x68, 0x3d,
  0xe3, 0xe0, 0x26, 0xbe, 0x96, 0x3f, 0xa2, 0xbb, 0xf6, 0xea, 0x0c, 0x3e,
  0xdb, 0xe9, 0x1c, 0xbe, 0xb7, 0x25, 0x12, 0xbe, 0xca, 0xf8, 0x8f, 0xbd,
  0x04, 0xab, 0x84, 0xbe, 0xc0, 0xd9, 0x16, 0x3c, 0x1c, 0x6b, 0xc0, 0xbc,
  0x6d, 0xc5, 0x8a, 0x3e, 0x95, 0x16, 0x60, 0x3e, 0x32, 0x6c, 0x18, 0x3f,
  0xb0, 0x72, 0x0e, 0xbd, 0x80, 0xff, 0x07, 0x3f, 0x20, 0x92, 0x9c, 0xbd,
  0x2f, 0x41, 0xce, 0x3e, 0xa7, 0xce, 0x12, 0xbe, 0x10, 0x4d, 0x01, 0x3d,
  0x59, 0xdb, 0x3d, 0x3e, 0x3f, 0xa7, 0x6d, 0xbe, 0x0b, 0x1f, 0x08, 0x3d,
  0xd8, 0xd4, 0xf8, 0x3d, 0x38, 0xbb, 0xac, 0x3d, 0x7f, 0x3b, 0xad, 0xbc,
  0x60, 0xc1, 0xaa, 0xbe, 0xcd, 0x80, 0x34, 0xbf, 0x5f, 0x41, 0x81, 0x3d,
  0x0f, 0x9c, 0x65, 0x3c, 0x90, 0x4e, 0x22, 0xbe, 0xbd, 0x10, 0xb2, 0x3d,
  0x63, 0xda, 0x18, 0xbc, 0x8e, 0x9d, 0xf3, 0xbc, 0x4c, 0x03, 0x0a, 0xbe,
  0xbe, 0x03, 0x90, 0xbd, 0x9c, 0xa0, 0x20, 0xbe, 0x57, 0x22, 0x6c, 0xbd,
  0x98, 0x27, 0x9d, 0xbd, 0x9c, 0xcd, 0x35, 0x3e, 0xfd, 0xa3, 0x8f, 0xbd,
  0x9f, 0x05, 0x8f, 0xbe, 0x0c, 0xb8, 0x62, 0x3d, 0xd4, 0x80, 0xbe, 0xbd,
  0x07, 0xae, 0xed, 0x3d, 0x85, 0xb3, 0x5a, 0x3d, 0x21, 0x4e, 0x38, 0x3e,
  0x3a, 0xa5, 0xf0, 0xbd, 0xdc, 0x40, 0x0e, 0xbe, 0xba, 0xfc, 0x19, 0x3d,
  0x06, 0xae, 0x7c, 0x3d, 0x0f, 0xa1, 0xcd, 0xbd, 0xba, 0x9a, 0x61, 0xbe,
  0xe7, 0x8b, 0x97, 0xbc, 0xe8, 0x7f, 0x4d, 0xbe, 0x7a, 0xf7, 0xd4, 0xbd,
  0x84, 0x24, 0x81, 0xbe, 0x01, 0xf3, 0x37, 0xbf, 0x23, 0x22, 0x80, 0x3d,
  0x60, 0x20, 0xb9, 0x3d, 0x90, 0x7b, 0x1c, 0xbe, 0x6f, 0xee, 0x12, 0xbc,
  0xe5, 0x6b, 0x9e, 0xbe, 0x65, 0x79, 0xf8, 0xbd, 0xa4, 0xd5, 0x26, 0xbd,
  0xcb, 0xe3, 0x20, 0xbe, 0x22, 0x1b, 0x94, 0xbc, 0x5c, 0x63, 0x4a, 0xbe,
  0xd5, 0x46, 0x3a, 0x3d, 0xa0, 0x5f, 0x0e, 0x3e, 0x94, 0x70, 0x21, 0xbd,
  0x3f, 0x6c, 0xde, 0xbe, 0xc1, 0x1b, 0xf5, 0x3d, 0x80, 0x1d, 0x77, 0x3d,
  0x72, 0xa0, 0xb2, 0xbe, 0x24, 0xe1, 0x52, 0x3e, 0xf2, 0x13, 0x48, 0x3e,
  0xf3, 0x18, 0x59, 0x3d, 0x6c, 0x09, 0xd7, 0x3d, 0xfd, 0xe5, 0x26, 0xbe,
  0xed, 0x8c, 0x87, 0xbe, 0x18, 0xc9, 0xde, 0xbe, 0x6d, 0xd3, 0xb7, 0xbb,
  0xf5, 0xb2, 0x8e, 0xbe, 0xa0, 0xd5, 0x1d, 0xbc, 0x8f, 0x65, 0x59, 0x3d,
  0xbb, 0xf0, 0x43, 0x3f, 0x26, 0xb0, 0xfd, 0x3e, 0x67, 0xfb, 0xda, 0x3e,
  0x0c, 0xc4, 0x15, 0x3e, 0x11, 0x2e, 0xb1, 0xbb, 0xac, 0x52, 0x19, 0x3d,
  0xc1, 0xe2, 0x80, 0x3e, 0x14, 0xc6, 0x30, 0xbe, 0x60, 0x19, 0x4b, 0xbe,
  0x9a, 0xcf, 0xf5, 0x3c, 0xef, 0x04, 0x70, 0xbe, 0x45, 0xf6, 0x0f, 0x3c,
  0x67, 0x91, 0xa1, 0xbd, 0xac, 0xff, 0xe4, 0x3d, 0x6a, 0xb7, 0x67, 0xbd,
  0x30, 0x0d, 0x6f, 0x3f, 0x97, 0x7d, 0xdd, 0x3d, 0x72, 0x24, 0xa9, 0x3e,
  0x7d, 0xc5, 0xa1, 0x3d, 0x02, 0x35, 0x88, 0x3d, 0x74, 0x7f, 0x3d, 0x3d,
  0x6e, 0x88, 0x1d, 0x3f, 0x3e, 0x2b, 0x3e, 0xbe, 0x9a, 0x1a, 0x3d, 0x3e,
  0x34, 0xa5, 0x80, 0xbe, 0x07, 0x31, 0x52, 0xbe, 0x6e, 0xb6, 0x27, 0x3e,
  0x0b, 0x30, 0x0c, 0xbe, 0x96, 0x0a, 0x49, 0x3e, 0xcd, 0x64, 0xb8, 0x3d,
  0x6b, 0x66, 0x80, 0x3f, 0x54, 0x91, 0x3b, 0x3e, 0x00, 0x50, 0x5b, 0x3f,
  0x87, 0xc4, 0x36, 0xbe, 0xd9, 0xd6, 0x32, 0x3e, 0x87, 0x25, 0x36, 0xbb,
  0xe1, 0x84, 0x32, 0x3f, 0x92, 0x6e, 0xc0, 0xbe, 0xf8, 0xfa, 0x64, 0xbe,
  0x7a, 0x71, 0x9c, 0xbe, 0xdf, 0x2d, 0x8d, 0xbe, 0x56, 0x47, 0x65, 0x3b,
  0x1a, 0x64, 0x5e, 0xbe, 0xc0, 0xbe, 0x05, 0x3c, 0xf7, 0x03, 0x8a, 0xbe,
  0xa0, 0x09, 0xcd, 0x3e, 0xee, 0x16, 0xb8, 0x3d, 0xba, 0x6c, 0x7f, 0x3e,
  0x24, 0x84, 0x62, 0x3e, 0x5a, 0x6d, 0xe6, 0x3d, 0x13, 0x76, 0x4e, 0xbe,
  0x2e, 0xbe, 0x85, 0x3d, 0x74, 0xaf, 0xc6, 0xbe, 0x7b, 0x89, 0xf5, 0xbd,
  0x6b, 0x8f, 0xff, 0xbc, 0xb6, 0x61, 0xa2, 0xbe, 0xd3, 0xbf, 0x7a, 0xbd,
  0x70, 0x3b, 0x87, 0xbe, 0x34, 0x36, 0x25, 0x3e, 0xf7, 0x4e, 0x09, 0xbe,
  0x60, 0xea, 0x1d, 0x3f, 0xd3, 0x97, 0x68, 0x3e, 0x0c, 0x7d, 0x10, 0x3d,
  0x95, 0xff, 0x43, 0xbe, 0x13, 0x41, 0xa7, 0xbe, 0x35, 0x8e, 0xf9, 0xbd,
  0x1c, 0xf8, 0x84, 0x3c, 0x38, 0xb7, 0x13, 0x3a, 0xdc, 0x55, 0x0e, 0xbd,
  0xfa, 0x48, 0x18, 0xbe, 0x78, 0xac, 0x28, 0xbe, 0x5a, 0x41, 0x04, 0xbe,
  0x3c, 0x3c, 0xc9, 0xbd, 0x40, 0x5b, 0x09, 0xbe, 0xc1, 0x39, 0x49, 0xbe,
  0xb5, 0x0e, 0x04, 0x3f, 0x34, 0x52, 0x28, 0x3e, 0x0a, 0x14, 0x3b, 0xbd,
  0x79, 0xf7, 0x3e, 0xbd, 0xae, 0xb7, 0x31, 0xbe, 0x73, 0x84, 0x34, 0x3e,
  0xdc, 0xa4, 0x14, 0x3e, 0xd6, 0x90, 0x9d, 0xbe, 0x4a, 0xa1, 0xcc, 0xbd,
  0x61, 0xa7, 0xe3, 0xbd, 0x5e, 0x6d, 0x33, 0xbe, 0x75, 0x48, 0x40, 0x3d,
  0xc0, 0x6b, 0xb5, 0xbe, 0x06, 0x88, 0x16, 0x3e, 0x83, 0x16, 0x3d, 0xbe,
  0x81, 0x06, 0xfb, 0x3e, 0x66, 0x61, 0xe8, 0x3e, 0x07, 0x48, 0x69, 0x3e,
  0x51, 0xf3, 0x4a, 0x3e, 0xe6, 0x99, 0x0d, 0xbe, 0xe6, 0x01, 0x59, 0xbe,
  0xc6, 0x12, 0x2c, 0x3e, 0xf5, 0x4a, 0x95, 0xbe, 0x3a, 0xa6, 0x19, 0xbe,
  0xbc, 0xf9, 0xa0, 0xbe, 0xe9, 0xed, 0x4d, 0xbe, 0x9e, 0x60, 0xbf, 0x3e,
  0x7f, 0x5d, 0x37, 0xbe, 0xb6, 0xdf, 0x3b, 0x3e, 0x1f, 0x1f, 0xaf, 0x3d,
  0xc8, 0xfc, 0x85, 0x3f, 0x68, 0x7a, 0x07, 0x3e, 0x85, 0xb0, 0x2e, 0x3f,
  0x6f, 0x4f, 0x8a, 0x3d, 0xfd, 0xc1, 0x26, 0x3f, 0x8d, 0xbb, 0x7e, 0xbe,
  0xb1, 0xe2, 0x54, 0x3f, 0x9b, 0xa7, 0xa3, 0xbd, 0xea, 0xff, 0xb5, 0x3d,
  0x34, 0x14, 0x4b, 0xbd, 0xa3, 0x77, 0xbd, 0xbe, 0x1e, 0xb4, 0x1f, 0x3e,
  0x7d, 0x5c, 0xb3, 0xbe, 0xc0, 0xd8, 0xe5, 0x3d, 0x8b, 0xe6, 0x61, 0xbe,
  0xf8, 0xcc, 0x07, 0x3f, 0xdc, 0xca, 0xc6, 0x3d, 0x20, 0x37, 0x13, 0x3f,
  0xb6, 0x44, 0x7b, 0x3d, 0x43, 0x6d, 0x71, 0xbd, 0x6d, 0x03, 0x05, 0x3d,
  0xbc, 0x23, 0xc8, 0x3e, 0x8b, 0xbb, 0x79, 0xbb, 0x9e, 0xc6, 0x3c, 0x3d,
  0x6d, 0x2c, 0xbe, 0xbd, 0x12, 0x11, 0x54, 0xbe, 0xd7, 0x08, 0xa6, 0xbe,
  0x3f, 0xe3, 0xf5, 0x3c, 0x1c, 0x9a, 0xb3, 0x3d, 0x1d, 0xa9, 0x0a, 0xbd,
  0xd2, 0xad, 0xe1, 0x3e, 0x51, 0xde, 0x01, 0x3e, 0x35, 0x5b, 0x03, 0xbe,
  0x08, 0x5f, 0x08, 0x3e, 0x55, 0x5b, 0xab, 0x3d, 0xd4, 0x34, 0x96, 0x3d,
  0xdc, 0xc1, 0xd7, 0x3d, 0xc3, 0xf6, 0x38, 0xbe, 0x52, 0xb9, 0xd9, 0x3d,
  0xfd, 0x55, 0x0f, 0xbe, 0xc7, 0x19, 0x8e, 0x3d, 0xd3, 0x5b, 0x1b, 0xbe,
  0x9a, 0x97, 0x80, 0xbe, 0x6c, 0xde, 0x55, 0x3e, 0x73, 0x14, 0xeb, 0x3d,
  0xc9, 0xae, 0xc0, 0x3e, 0x05, 0x02, 0xa9, 0xbd, 0x40, 0x1f, 0x0b, 0x3e,
  0x7e, 0x67, 0x8a, 0xbe, 0x1d, 0xc0, 0x0e, 0x3e, 0xab, 0xa9, 0x07, 0xbe,
  0xb8, 0x41, 0x49, 0xbe, 0x96, 0x24, 0x40, 0xbe, 0x3d, 0x56, 0x29, 0x3d,
  0x6a, 0xe8, 0x26, 0xbe, 0x8e, 0xbd, 0x1a, 0xbe, 0xf7, 0x22, 0x93, 0x3a,
  0x91, 0xd4, 0x92, 0xbd, 0x18, 0xd6, 0x33, 0xbd, 0xb7, 0xaa, 0x32, 0xbe,
  0xe1, 0x7f, 0x11, 0x3f, 0xea, 0xc6, 0xb2, 0x3d, 0x4a, 0x48, 0x95, 0x3e,
  0xa3, 0x3a, 0x73, 0x3e, 0xc1, 0x90, 0x47, 0x3d, 0x76, 0xa9, 0x98, 0xba,
  0x75, 0xab, 0x38, 0xbd, 0xc4, 0xeb, 0xfb, 0xbd, 0xec, 0xc1, 0x3a, 0x3c,
  0x3d, 0x0a, 0x6a, 0xbd, 0x62, 0x8e, 0xa3, 0xbd, 0x5a, 0x5f, 0x3c, 0xbe,
  0xbb, 0xa7, 0x85, 0x3d, 0x6c, 0x7d, 0x38, 0xbe, 0x5b, 0x6b, 0x28, 0xbe,
  0x0a, 0x3a, 0xe3, 0xbd, 0xc4, 0x39, 0x3c, 0xbe, 0x68, 0xe9, 0x8f, 0x3d,
  0xf0, 0x83, 0x38, 0xbe, 0x0d, 0x34, 0x84, 0x3d, 0x0e, 0x1b, 0xce, 0x3d,
  0x10, 0x23, 0xf1, 0xbd, 0x49, 0x67, 0x2c, 0x3e, 0xce, 0x58, 0xf7, 0x3d,
  0xe4, 0x72, 0x8d, 0xba, 0x98, 0x7e, 0x05, 0x3e, 0xbc, 0xc8, 0x16, 0x3e,
  0x03, 0x34, 0x52, 0x3e, 0xca, 0x0a, 0x35, 0xbe, 0xb3, 0x10, 0xd3, 0x3d,
  0x16, 0x88, 0x8f, 0xbd, 0x88, 0x8d, 0x37, 0x3c, 0xa4, 0x3f, 0x77, 0xbd,
  0x51, 0xe1, 0x53, 0xbe, 0x0a, 0x5b, 0x25, 0x3d, 0x76, 0xc6, 0x01, 0xbe,
  0x68, 0x01, 0x3e, 0x3e, 0x86, 0x9f, 0x95, 0x3d, 0x4f, 0x1c, 0x25, 0x3e,
  0x25, 0x63, 0x60, 0xbe, 0x0e, 0x27, 0x5d, 0xbe, 0x97, 0x13, 0x66, 0xbe,
  0xeb, 0xea, 0x10, 0x3d, 0xa5, 0x5d, 0x3c, 0xbe, 0x07, 0xcf, 0x5c, 0xbe,
  0x4c, 0xce, 0x2d, 0x3e, 0xd6, 0x82, 0x41, 0xbe, 0xe0, 0xd0, 0x31, 0xbe,
  0x49, 0xd8, 0x1d, 0x3e, 0x3b, 0x6c, 0x24, 0xbe, 0x06, 0x6e, 0x07, 0xbe,
  0xea, 0x1e, 0x0d, 0xbc, 0x01, 0x15, 0x2e, 0xbe, 0xc7, 0x24, 0x9d, 0xbd,
  0x77, 0x77, 0x13, 0x3e, 0xa2, 0x99, 0x3b, 0x3d, 0x9e, 0x62, 0x9d, 0x3d,
  0xec, 0xe6, 0x78, 0xbc, 0xd2, 0x5e, 0x41, 0x3e, 0x04, 0x59, 0x14, 0x3d,
  0xe7, 0x36, 0xe9, 0x3c, 0xcf, 0x51, 0xa7, 0x3b, 0xb3, 0x54, 0x4c, 0x3e,
  0x62, 0x82, 0x28, 0x3e, 0x1f, 0xa6, 0x68, 0xbe, 0x9b, 0xc7, 0x56, 0xbe,
  0x87, 0xf0, 0x25, 0x3e, 0xb8, 0x08, 0xf0, 0x3d, 0x85, 0xdc, 0x47, 0x3d,
  0x91, 0x66, 0x54, 0xbe, 0xa2, 0x54, 0x2d, 0x3e, 0xdf, 0x53, 0x3d, 0x3e,
  0x3b, 0xa2, 0x25, 0xbe, 0x6a, 0x6b, 0x40, 0xbe, 0xf9, 0xc0, 0x83, 0x3d,
  0x09, 0xe8, 0x4d, 0x3e, 0x1f, 0x77, 0x15, 0x3e, 0xbe, 0x4f, 0x4b, 0x3e,
  0xf1, 0x0d, 0xed, 0x3d, 0x3a, 0x1f, 0xb5, 0xbd, 0x74, 0x4d, 0x92, 0x3c,
  0x79, 0xfb, 0x3d, 0x3e, 0x92, 0xfb, 0x7a, 0xbd, 0xbd, 0x8a, 0xd0, 0x3d,
  0xa6, 0x54, 0xd4, 0x3d, 0x15, 0x22, 0x4b, 0xbe, 0x16, 0x74, 0x4b, 0x3e,
  0xdc, 0x2b, 0x4d, 0xbd, 0xa9, 0xc8, 0x07, 0xbe, 0xa1, 0x81, 0xc9, 0xbc,
  0xe2, 0x85, 0x8c, 0x3d, 0xc2, 0xbe, 0x41, 0x3d, 0x7f, 0x28, 0x42, 0xbd,
  0xf3, 0x0d, 0x0d, 0xbe, 0xb9, 0x0c, 0xd8, 0x3d, 0x51, 0x84, 0x95, 0x3b,
  0x6f, 0x1a, 0x2a, 0xbe, 0x64, 0x09, 0x08, 0xbe, 0xc9, 0x30, 0xc5, 0xbd,
  0xcd, 0x81, 0xd9, 0x3d, 0xb7, 0xbd, 0x1b, 0x3d, 0x20, 0x0f, 0x14, 0x3e,
  0x9a, 0x32, 0xd6, 0xbd, 0x5c, 0xbc, 0xc5, 0x3d, 0x78, 0x0e, 0x49, 0x3e,
  0xf5, 0x2d, 0x4d, 0x3d, 0x31, 0x43, 0x3e, 0xbe, 0x60, 0xf7, 0x8f, 0x3c,
  0xd7, 0x5d, 0x23, 0xbe, 0xf5, 0xf6, 0x43, 0x3d, 0xb7, 0x37, 0x2d, 0x3e,
  0x75, 0x7f, 0x33, 0xbe, 0x85, 0xcb, 0x2e, 0x3e, 0xe5, 0x85, 0xb5, 0x3d,
  0xd4, 0x8a, 0x4a, 0x3e, 0xef, 0x4b, 0x55, 0x3c, 0xcf, 0x9e, 0x3b, 0x3e,
  0xbc, 0xc3, 0x3b, 0xbe, 0x3e, 0xd4, 0x27, 0x3e, 0xd5, 0x43, 0x31, 0x3e,
  0x28, 0xd9, 0x31, 0x3d, 0x63, 0x3d, 0xfe, 0x3d, 0x90, 0xe9, 0x24, 0xbe,
  0x09, 0xe5, 0x43, 0xbe, 0x01, 0x65, 0xac, 0x3d, 0xdf, 0x73, 0xd0, 0xbd,
  0x26, 0xb7, 0xdc, 0xbd, 0x23, 0x48, 0x5d, 0xbe, 0xd1, 0x78, 0xda, 0x3c,
  0x9e, 0x50, 0x36, 0x3e, 0x92, 0xcd, 0x4c, 0xbe, 0xf4, 0xca, 0x3e, 0xbd,
  0x51, 0x0b, 0x1e, 0xbe, 0xaa, 0x02, 0x54, 0x3e, 0xa8, 0x35, 0x4b, 0x3e,
  0xac, 0x78, 0x03, 0x3e, 0xf2, 0xae, 0x3b, 0x3e, 0x50, 0x97, 0xc0, 0x3d,
  0x45, 0xb1, 0x17, 0xbe, 0x63, 0x98, 0x87, 0xbd, 0x21, 0xca, 0x0e, 0x3e,
  0xcb, 0xfc, 0x09, 0x3e, 0x9f, 0x4e, 0xc2, 0x3d, 0xbb, 0x97, 0xc0, 0xbc,
  0x59, 0x45, 0x61, 0xbe, 0xe5, 0x8d, 0xad, 0x3d, 0x45, 0x52, 0x84, 0xbc,
  0x15, 0xaa, 0x74, 0xbd, 0x08, 0xc9, 0xa3, 0xbc, 0x33, 0x66, 0x95, 0xbd,
  0x0d, 0xd4, 0x42, 0xbe, 0xca, 0x5a, 0xa7, 0xbd, 0x09, 0x2f, 0x5b, 0x3d,
  0x63, 0xde, 0xdb, 0xbb, 0x1f, 0xab, 0x9e, 0x3d, 0x7b, 0x4a, 0x09, 0xbe,
  0x4c, 0xbb, 0x4a, 0x3e, 0xc4, 0x85, 0xa1, 0x3d, 0xb0, 0xb5, 0x4d, 0xbe,
  0xb9, 0x89, 0x8f, 0xbd, 0xd7, 0x62, 0x46, 0xbe, 0xa3, 0xcb, 0x87, 0x3d,
  0x3c, 0x37, 0x3a, 0xbc, 0x90, 0x1f, 0xab, 0xbd, 0xb5, 0xeb, 0xec, 0x3b,
  0x70, 0xd4, 0x09, 0xbd, 0x5b, 0x76, 0xda, 0xbd, 0x39, 0xf3, 0x89, 0x3d,
  0x47, 0x77, 0xd3, 0xbd, 0x31, 0x0c, 0xc7, 0x3d, 0xe5, 0xc2, 0x08, 0xbe,
  0x8b, 0x35, 0x6c, 0xbe, 0x2b, 0x33, 0x49, 0x3e, 0xe1, 0x18, 0xb6, 0xbc,
  0x50, 0x22, 0x1f, 0x3e, 0x8d, 0x9f, 0x26, 0x3e, 0x48, 0xad, 0x03, 0x3e,
  0xa9, 0x6a, 0x2b, 0x3d, 0x58, 0x1b, 0xa8, 0xbd, 0xbc, 0x64, 0x25, 0x3e,
  0x44, 0xdb, 0x36, 0x3e, 0xce, 0x83, 0x2a, 0x3e, 0xcc, 0x7e, 0x3a, 0xbe,
  0xb4, 0x9d, 0xc9, 0xbd, 0xd0, 0x2f, 0x23, 0xbe, 0x51, 0x67, 0x2b, 0xbe,
  0x40, 0x7e, 0x13, 0xbd, 0x55, 0xc7, 0x45, 0x3b, 0xe1, 0x2b, 0xd6, 0x3c,
  0x7a, 0x2c, 0x3b, 0xbe, 0x18, 0xa6, 0xb4, 0x3d, 0xd6, 0x7e, 0xe7, 0x3d,
  0xca, 0xc1, 0xc1, 0xbc, 0x10, 0xf5, 0x08, 0xbc, 0xae, 0x9f, 0x11, 0xbe,
  0xf3, 0x4f, 0xbf, 0x3c, 0x7b, 0xaa, 0x4b, 0xbe, 0x0d, 0x38, 0x7f, 0xbe,
  0xa5, 0xab, 0xd1, 0x3d, 0x97, 0x7b, 0xed, 0xbd, 0x62, 0xf8, 0x28, 0xbe,
  0xac, 0x59, 0x82, 0xbe, 0xc0, 0x20, 0x19, 0xbe, 0xcf, 0xf5, 0xd9, 0xbd,
  0xe2, 0x4b, 0x9e, 0x3d, 0x77, 0xec, 0x6a, 0xbe, 0xa0, 0xa6, 0x0a, 0xbd,
  0x9e, 0x27, 0x8e, 0xbe, 0x5a, 0x68, 0x5a, 0x3e, 0x89, 0xfa, 0x85, 0x3d,
  0x30, 0x49, 0x95, 0xbd, 0xaf, 0xa4, 0x92, 0xbd, 0xa9, 0x4a, 0x86, 0x3d,
  0x86, 0xcf, 0x0c, 0xbe, 0x36, 0xe2, 0xaf, 0xbd, 0x5b, 0x48, 0x9f, 0x3d,
  0x77, 0x54, 0x80, 0xbe, 0xc2, 0xc3, 0x44, 0xbd, 0xdd, 0x2b, 0x76, 0xbe,
  0x0d, 0xf4, 0x67, 0xbe, 0xa0, 0xb0, 0x02, 0xbe, 0x56, 0x1a, 0x21, 0xbd,
  0x84, 0x6e, 0x4d, 0xbd, 0xac, 0xbb, 0x8f, 0xbd, 0x38, 0xce, 0x03, 0x3e,
  0x52, 0xa0, 0xfd, 0x3d, 0x09, 0xee, 0xce, 0x3c, 0xfb, 0x55, 0x44, 0xbe,
  0x9b, 0x88, 0xb8, 0x3d, 0x09, 0xb0, 0xef, 0x39, 0x32, 0x41, 0xb1, 0x3d,
  0x31, 0x44, 0x7e, 0xbd, 0x10, 0x9d, 0xf3, 0xbd, 0xfb, 0x3f, 0xa0, 0xbd,
  0x7b, 0xe5, 0xd0, 0xbd, 0x37, 0x2e, 0x5c, 0xbe, 0x68, 0x93, 0x26, 0x3d,
  0x4d, 0x8b, 0xf0, 0xbb, 0x74, 0xdf, 0xd6, 0x3d, 0xb4, 0xe5, 0x7d, 0xbb,
  0xc0, 0xf8, 0x35, 0xbe, 0x41, 0xce, 0xf1, 0x3d, 0x4e, 0x4f, 0xf1, 0xbd,
  0x2c, 0x1c, 0x0b, 0x3e, 0x44, 0xaa, 0x16, 0xbd, 0x54, 0x28, 0x50, 0xbe,
  0xa3, 0x8e, 0xe6, 0x3c, 0xab, 0x25, 0x92, 0xbe, 0x8b, 0x74, 0x49, 0xbe,
  0x54, 0xf9, 0xca, 0xba, 0x93, 0x1d, 0x64, 0xbd, 0x7b, 0x62, 0xb7, 0xbc,
  0x41, 0x3d, 0x0a, 0xbe, 0x30, 0x77, 0x1f, 0x3c, 0xd1, 0xb9, 0x3e, 0xbe,
  0x67, 0x68, 0x1a, 0x3e, 0x5f, 0x37, 0xdc, 0xbd, 0x70, 0xf9, 0x31, 0xbb,
  0x33, 0x77, 0x16, 0xbe, 0x14, 0xdc, 0x08, 0x3e, 0x34, 0x60, 0x50, 0x3d,
  0x07, 0x1f, 0x07, 0x3e, 0xa8, 0xfd, 0x27, 0xbe, 0x5e, 0xcc, 0x2d, 0xbe,
  0x2a, 0xaf, 0x84, 0xbd, 0x15, 0xcd, 0x16, 0xbd, 0x51, 0x9a, 0x97, 0x3d,
  0x8f, 0x86, 0x59, 0xbe, 0x7c, 0x61, 0x87, 0xbd, 0xa6, 0xaf, 0xfa, 0xbd,
  0x3a, 0xe7, 0x69, 0xbe, 0xb7, 0x67, 0x1a, 0x3d, 0x56, 0x44, 0xdf, 0x3d,
  0xd4, 0x1a, 0x08, 0xbe, 0xa5, 0x46, 0x0c, 0x3e, 0xa2, 0x4e, 0xd2, 0x3d,
  0x68, 0x8f, 0x67, 0xbe, 0x5e, 0xcb, 0xfa, 0x3d, 0x2a, 0x26, 0x60, 0x3d,
  0xb4, 0xb2, 0xe7, 0xbd, 0xa8, 0xae, 0xaf, 0xbc, 0x5f, 0x3f, 0x3b, 0xbe,
  0x56, 0xc8, 0x1e, 0xbe, 0x7e, 0x1a, 0x3c, 0x3e, 0x34, 0x42, 0x1a, 0xbe,
  0x60, 0x51, 0x3f, 0x3d, 0xd8, 0xb3, 0xb5, 0x3c, 0x52, 0xa2, 0x0e, 0xbe,
  0xd0, 0x08, 0x9d, 0x3c, 0xc0, 0x93, 0x82, 0x3b, 0xd0, 0x99, 0x76, 0x3c,
  0x37, 0xb8, 0xca, 0xbd, 0xec, 0xe7, 0x6d, 0xbd, 0xc9, 0xd2, 0x40, 0xbe,
  0xe5, 0xc6, 0x41, 0xbe, 0x8f, 0x2e, 0x5e, 0xbe, 0x88, 0xba, 0xa1, 0x3d,
  0x66, 0xbb, 0x12, 0xbe, 0xa7, 0x1d, 0x2b, 0xbe, 0x32, 0x9c, 0x55, 0x3e,
  0xe8, 0xa7, 0x55, 0xbd, 0x47, 0x77, 0x5a, 0xbe, 0x80, 0x3b, 0xa5, 0xbd,
  0x88, 0x98, 0x38, 0x3d, 0xe2, 0x26, 0x06, 0x3e, 0x00, 0x70, 0x26, 0x3a,
  0xbc, 0xb2, 0xf6, 0x3d, 0xcd, 0x3b, 0x4f, 0xbe, 0x30, 0xf3, 0x8d, 0x3c,
  0xc0, 0xc9, 0x21, 0x3c, 0xc8, 0x02, 0x62, 0x3d, 0x5e, 0x2a, 0x1e, 0x3e,
  0x10, 0x97, 0x3f, 0x3d, 0x60, 0xf3, 0xed, 0x3c, 0xc0, 0xd3, 0x40, 0x3d,
  0x10, 0xab, 0x9f, 0x3d, 0x9e, 0x71, 0x18, 0xbe, 0x78, 0x4c, 0xcf, 0x3c,
  0x40, 0x01, 0xba, 0x3b, 0x88, 0x3d, 0xbf, 0xbd, 0x8e, 0x00, 0xf8, 0xbd,
  0x00, 0x9e, 0x62, 0xba, 0x28, 0x1d, 0xb2, 0xbc, 0x84, 0x39, 0x8a, 0xbd,
  0xf8, 0xa6, 0xee, 0xbc, 0xe8, 0xdd, 0xc0, 0x3d, 0x76, 0x3e, 0x2b, 0xbe,
  0x50, 0xe4, 0x1d, 0xbd, 0x94, 0x0f, 0x15, 0xbe, 0xfc, 0x81, 0xb4, 0xbd,
  0xb0, 0x6c, 0x18, 0xbc, 0x20, 0x85, 0x2d, 0xbc, 0x44, 0xd1, 0xe6, 0xbd,
  0xd7, 0x36, 0x01, 0xbe, 0xa7, 0x1d, 0xe0, 0xbd, 0x60, 0x01, 0xe4, 0xbb,
  0x90, 0x90, 0x3e, 0x3d, 0x46, 0x71, 0x19, 0xbe, 0xa8, 0xe0, 0xc4, 0x3d,
  0xe8, 0x44, 0x87, 0x3d, 0x10, 0x80, 0x89, 0xbd, 0x66, 0xcf, 0x09, 0x3e,
  0x80, 0xa4, 0xc9, 0x3d, 0x60, 0xc1, 0x0e, 0x3d, 0x90, 0x30, 0x9f, 0x3d,
  0xa8, 0x8b, 0xe6, 0xbd, 0xb0, 0x73, 0x59, 0xbe, 0x10, 0x68, 0xb0, 0xbc,
  0x40, 0x40, 0x37, 0x3e, 0xce, 0xc1, 0x82, 0xbd, 0x00, 0xf4, 0x3a, 0x39,
  0x10, 0x3c, 0xc0, 0xbc, 0xda, 0x82, 0x58, 0x3e, 0x5c, 0x51, 0x54, 0xbe,
  0xda, 0x4a, 0x01, 0xbe, 0xeb, 0x4d, 0x51, 0xbe, 0x68, 0xfc, 0xd5, 0xbc,
  0xa4, 0xe9, 0xb9, 0x3d, 0x84, 0xa9, 0x18, 0x3e, 0x30, 0xba, 0x20, 0xbe,
  0xf4, 0x44, 0x28, 0x3e, 0x00, 0xf7, 0x96, 0xbc, 0x8d, 0x74, 0x38, 0xbe,
  0x50, 0x1e, 0xee, 0xbd, 0xba, 0x15, 0x52, 0x3e, 0x48, 0xc3, 0x78, 0x3d,
  0x12, 0x46, 0x98, 0xbd, 0x0c, 0xdc, 0x0c, 0xbe, 0xcf, 0xca, 0x21, 0xbe,
  0x44, 0xd1, 0x77, 0xbd, 0x86, 0x23, 0x50, 0x3d, 0x37, 0x7d, 0x0e, 0xbe,
  0xcd, 0x20, 0xe6, 0x3d, 0x20, 0xc8, 0x7e, 0x3c, 0x1e, 0x10, 0xe9, 0x3d,
  0x9e, 0xee, 0x6d, 0xbe, 0x66, 0x60, 0xac, 0x3c, 0x2c, 0x10, 0x11, 0x3e,
  0xb7, 0xd2, 0x4e, 0xbe, 0xe0, 0x74, 0xe1, 0xbd, 0x61, 0x53, 0x03, 0x3e,
  0x45, 0xde, 0x4c, 0xbe, 0x65, 0x44, 0x89, 0xbe, 0xc2, 0xe4, 0x53, 0xbe,
  0x09, 0xa9, 0x26, 0x3d, 0xca, 0xb0, 0x0c, 0xbe, 0xd0, 0xb3, 0x6f, 0xbe,
  0xbe, 0x96, 0x38, 0xbe, 0xde, 0xe9, 0x20, 0x3e, 0xb7, 0x5d, 0x9e, 0xbc,
  0x1e, 0x6f, 0x25, 0xbe, 0xff, 0xb5, 0xb3, 0xbd, 0x01, 0xcf, 0x9d, 0x3d,
  0xb9, 0x07, 0xff, 0xbd, 0x8b, 0x14, 0x77, 0xbe, 0x90, 0xba, 0x02, 0x3e,
  0xeb, 0x0e, 0x30, 0xbe, 0xf4, 0x2d, 0x5d, 0xbe, 0x08, 0xf4, 0x84, 0xbe,
  0xe4, 0x54, 0x71, 0xbe, 0xcd, 0xbd, 0x04, 0x3e, 0xdc, 0xa1, 0xda, 0x3d,
  0x22, 0x52, 0xff, 0x3d, 0xb0, 0xe6, 0x64, 0xbc, 0x39, 0x61, 0x03, 0xbd,
  0x4d, 0x0e, 0x61, 0xbe, 0x94, 0x37, 0x1c, 0x3d, 0x32, 0x61, 0xfc, 0x3d,
  0x40, 0x71, 0xb6, 0xbc, 0xa2, 0xcd, 0x85, 0xbe, 0x44, 0xc0, 0x44, 0xbe,
  0x61, 0xd6, 0x99, 0xbd, 0x87, 0xb6, 0x97, 0xbe, 0x73, 0x26, 0x09, 0x3e,
  0xbe, 0xc9, 0x8e, 0x3d, 0xff, 0x86, 0x4d, 0xbe, 0x92, 0x3a, 0x8c, 0xbe,
  0x12, 0xac, 0x2c, 0x3d, 0xe2, 0xad, 0x44, 0x3e, 0x65, 0x98, 0x74, 0xbd,
  0xed, 0xec, 0x9a, 0x3d, 0x22, 0x3c, 0x36, 0xbe, 0x07, 0xc4, 0x34, 0xbe,
  0x6f, 0x8a, 0x99, 0xbd, 0xe1, 0xf2, 0x80, 0x3d, 0x4a, 0x69, 0xcd, 0xbd,
  0xca, 0x83, 0x8d, 0xbe, 0x96, 0xdf, 0xf5, 0x3c, 0x52, 0x6a, 0x80, 0x3d,
  0x44, 0xc9, 0x9e, 0x3d, 0x95, 0xcb, 0x8e, 0x3d, 0x7e, 0x30, 0x86, 0xbe,
  0x0c, 0x49, 0xcf, 0xbd, 0xce, 0x8a, 0x1d, 0x3e, 0xbe, 0xe9, 0xf9, 0x3d,
  0x6a, 0xfa, 0x2f, 0xbe, 0xe9, 0x47, 0xdf, 0x3d, 0xf8, 0x6f, 0x5f, 0x3d,
  0x99, 0xb6, 0xca, 0x3d, 0xbf, 0xf0, 0x55, 0xbd, 0xd6, 0xf8, 0x9f, 0x3b,
  0xff, 0x36, 0x2f, 0xbe, 0x24, 0xf6, 0xd6, 0xbd, 0x15, 0x2a, 0x92, 0xbe,
  0x57, 0x54, 0x52, 0xbe, 0x8a, 0x94, 0x85, 0xbe, 0xc8, 0x74, 0x4c, 0xbe,
  0xe4, 0xa4, 0xf5, 0x3b, 0x34, 0x1f, 0xdf, 0xbd, 0x17, 0x96, 0x73, 0xbe,
  0x24, 0x80, 0x09, 0x3e, 0xd1, 0xd4, 0x8d, 0xbc, 0x00, 0xb9, 0xcb, 0xbd,
  0xff, 0x3d, 0x5e, 0xbc, 0xa0, 0xd9, 0xe0, 0xbd, 0x8e, 0xe0, 0x3d, 0x3d,
  0x3c, 0x55, 0x38, 0xbe, 0x4b, 0xa3, 0xba, 0x3b, 0xa8, 0xe2, 0xb3, 0x3d,
  0x78, 0x79, 0x27, 0xbe, 0xfa, 0xcd, 0x65, 0xbe, 0xe5, 0x71, 0x48, 0xbe,
  0xf7, 0x57, 0x84, 0x3d, 0xf8, 0xe8, 0xd8, 0x3c, 0x16, 0x66, 0x77, 0xbe,
  0x77, 0xf7, 0x85, 0xbe, 0x08, 0xd0, 0xcc, 0x3d, 0xa7, 0x3b, 0x7c, 0xbe,
  0xfb, 0x1e, 0xce, 0x3d, 0xe4, 0xa9, 0x6f, 0xbe, 0x90, 0x6c, 0xd8, 0xbc,
  0xec, 0xd5, 0x36, 0xbe, 0x92, 0xba, 0x5a, 0x3d, 0xe1, 0xae, 0x3f, 0xbe,
  0x29, 0xc1, 0xbb, 0x3d, 0x12, 0xb7, 0x90, 0xbd, 0xfd, 0xe5, 0x9d, 0xbd,
  0xee, 0xb2, 0x29, 0xbe, 0x80, 0x35, 0x20, 0x3b, 0x77, 0x12, 0xaf, 0x3d,
  0xcb, 0x06, 0x8b, 0xbe, 0xf7, 0xe3, 0xe9, 0xbc, 0xd3, 0x14, 0x17, 0x3e,
  0x4a, 0x58, 0xb8, 0x3b, 0x15, 0x6b, 0x09, 0x3e, 0x0a, 0x3d, 0x71, 0xbe,
  0x1a, 0xcc, 0x0c, 0xbd, 0xa2, 0xc8, 0x6e, 0xbe, 0xe3, 0x67, 0x4d, 0xbd,
  0x20, 0xbc, 0x89, 0x3d, 0x4b, 0x6d, 0x08, 0xbd, 0xb9, 0x93, 0x3a, 0x3c,
  0xde, 0xfe, 0x8e, 0xbd, 0x0a, 0x97, 0x0e, 0xbe, 0x5c, 0xeb, 0x1f, 0xbd,
  0x35, 0xb7, 0xa3, 0xbc, 0x47, 0xa8, 0x80, 0xbe, 0xb4, 0x89, 0xde, 0xbd,
  0x89, 0x20, 0x8f, 0x3d, 0x51, 0x67, 0x9f, 0xbc, 0xb6, 0x86, 0x52, 0xbd,
  0xee, 0xf1, 0x45, 0x3d, 0x6e, 0x4b, 0x63, 0xbd, 0xbc, 0xa6, 0x1c, 0x3e,
  0xf8, 0x45, 0x60, 0xbe, 0x65, 0xe6, 0x71, 0x3d, 0xf7, 0x97, 0x21, 0xbe,
  0xee, 0x21, 0x41, 0xbe, 0x14, 0xbb, 0x58, 0x3e, 0x5c, 0xe8, 0xd6, 0xbc,
  0x7f, 0x34, 0x77, 0xbd, 0x70, 0x86, 0x77, 0x3c, 0x5e, 0xba, 0x6a, 0xbe,
  0x50, 0xe8, 0x75, 0x3d, 0x4e, 0x39, 0x22, 0xbe, 0xc1, 0x97, 0x71, 0xbe,
  0x85, 0x58, 0xdc, 0xbc, 0x08, 0x49, 0x2a, 0xbc, 0x1f, 0x57, 0x55, 0xbe,
  0xaa, 0xe3, 0x0f, 0xbe, 0x10, 0x08, 0x76, 0xbe, 0x0a, 0xa6, 0x0f, 0x3e,
  0x0e, 0x70, 0x01, 0xbd, 0xe2, 0x21, 0xfd, 0xbd, 0x08, 0x37, 0xa9, 0x3c,
  0xe4, 0x3a, 0xa4, 0x3a, 0xf7, 0xcc, 0x8a, 0x3d, 0xe2, 0x0c, 0xec, 0xbd,
  0x1d, 0x50, 0xf2, 0x3c, 0x28, 0xae, 0x26, 0xbe, 0x3f, 0x33, 0x68, 0xbe,
  0x38, 0x74, 0x8f, 0x3d, 0x0a, 0x2d, 0xf5, 0x3c, 0x5d, 0x66, 0x7a, 0xbe,
  0x80, 0xa8, 0x42, 0xbe, 0xa0, 0xa8, 0x2f, 0x3e, 0x7c, 0x79, 0x71, 0xbc,
  0x58, 0x0e, 0x87, 0x3c, 0xce, 0x63, 0xa5, 0xbd, 0xd5, 0xad, 0x37, 0x3e,
  0x8c, 0xb9, 0x89, 0xbe, 0xc9, 0x5a, 0x0f, 0xbd, 0x7e, 0x85, 0x2a, 0x3e,
  0x2b, 0x30, 0x1b, 0x3e, 0x50, 0xc5, 0xb8, 0x3d, 0x5d, 0x9f, 0x45, 0x3e,
  0x40, 0x9f, 0x43, 0xbd, 0x03, 0x33, 0x70, 0xbe, 0x0d, 0x5f, 0xd6, 0xbd,
  0xd5, 0x5f, 0x4b, 0x3d, 0xc9, 0x92, 0x11, 0xbc, 0x02, 0xbf, 0xf5, 0x3d,
  0x0a, 0x43, 0x4d, 0xbd, 0x4c, 0xd5, 0x30, 0x3e, 0x54, 0xed, 0x01, 0x3e,
  0x67, 0xab, 0x5d, 0xbd, 0x50, 0x6a, 0x74, 0xbe, 0x08, 0x78, 0xf1, 0xbd,
  0xd6, 0xa1, 0xd4, 0xbd, 0xf7, 0x7f, 0x99, 0x3d, 0x54, 0x4e, 0x49, 0x3c,
  0xd3, 0xc7, 0xaa, 0x3d, 0xb8, 0x52, 0x0f, 0x3e, 0x47, 0xf9, 0x44, 0xbe,
  0xce, 0x93, 0x1b, 0xbd, 0x32, 0xb4, 0xdd, 0xbb, 0xeb, 0x7d, 0x88, 0xbd,
  0x10, 0x1d, 0x0f, 0xbe, 0xd0, 0x11, 0x05, 0x3e, 0xb9, 0x48, 0x84, 0xbd,
  0x5a, 0x3e, 0x4a, 0xbe, 0xff, 0xe0, 0x16, 0x3e, 0xc9, 0xcd, 0x03, 0xbd,
  0x41, 0xd4, 0xa8, 0x3c, 0xee, 0x8a, 0x39, 0x3e, 0x3e, 0x33, 0xb1, 0xbd,
  0x33, 0x0c, 0xf1, 0xbd, 0xf4, 0xa5, 0x52, 0xbe, 0xa5, 0xb5, 0x3f, 0xbe,
  0x11, 0x70, 0x34, 0xbe, 0xb5, 0x66, 0xe8, 0xbc, 0x81, 0x5d, 0x08, 0x3e,
  0x7f, 0x6c, 0x17, 0xbe, 0xca, 0x77, 0x1b, 0xbe, 0xef, 0x6a, 0x0f, 0x3e,
  0x93, 0x1a, 0x49, 0x3e, 0xa6, 0x80, 0x64, 0xbe, 0x18, 0x58, 0xdd, 0xbd,
  0x6b, 0x5e, 0xec, 0xbd, 0x0e, 0xf0, 0x0d, 0xbe, 0xcc, 0x44, 0xd6, 0x3d,
  0x2b, 0x7a, 0xc5, 0xbd, 0xdf, 0xdc, 0x01, 0xbe, 0x75, 0xfd, 0xed, 0xbd,
  0xdb, 0xb0, 0x83, 0x3d, 0xfe, 0xd3, 0x45, 0xbe, 0xa5, 0xb1, 0x40, 0x3d,
  0x70, 0x03, 0x36, 0xbe, 0x8a, 0x97, 0x3d, 0xbe, 0xbc, 0xa3, 0xf3, 0x3d,
  0xac, 0x9e, 0x27, 0xbe, 0x5d, 0x17, 0xe4, 0x3d, 0x65, 0xc7, 0xd8, 0x3c,
  0x6a, 0xe5, 0x14, 0x3e, 0xfe, 0xfd, 0xb8, 0xba, 0x50, 0x04, 0x5a, 0x3d,
  0x5c, 0xe9, 0xd1, 0xbd, 0x86, 0x5c, 0xe8, 0x3d, 0xac, 0x42, 0x01, 0xbe,
  0xb1, 0x38, 0x06, 0x3e, 0xda, 0x23, 0x30, 0xbd, 0x94, 0x22, 0x38, 0xbe,
  0x00, 0x67, 0x34, 0xbe, 0x94, 0x04, 0xd7, 0x3d, 0x18, 0x17, 0x11, 0xbe,
  0x46, 0xb1, 0x6c, 0xbd, 0x12, 0x3b, 0x0b, 0xbe, 0xd4, 0x37, 0x0a, 0xbe,
  0xdf, 0x19, 0x80, 0xbd, 0x9c, 0xc5, 0xa0, 0xbd, 0x8f, 0x7e, 0x0d, 0xbe,
  0xa1, 0xc7, 0x86, 0x3d, 0xe9, 0x87, 0x52, 0xbe, 0x48, 0x38, 0xcb, 0x3c,
  0x94, 0x38, 0x19, 0xbd, 0x52, 0xea, 0x80, 0xbe, 0xb3, 0xcf, 0xf5, 0xbd,
  0xc9, 0x42, 0x7b, 0xbe, 0x52, 0xaa, 0x34, 0xbe, 0x74, 0x48, 0x69, 0xbd,
  0xa3, 0x1a, 0x42, 0xbe, 0xdc, 0x5f, 0xf5, 0xbc, 0x1a, 0xf0, 0xe5, 0x3d,
  0xe0, 0xd9, 0x3e, 0xbd, 0xf3, 0x70, 0x65, 0x3c, 0x85, 0x17, 0xa8, 0x3d,
  0x33, 0x31, 0x0f, 0x3e, 0x68, 0xb6, 0x0f, 0xbe, 0x99, 0x13, 0x97, 0x3d,
  0x33, 0x31, 0x59, 0xbe, 0x6a, 0xb4, 0x14, 0x3e, 0xd0, 0xbd, 0xd9, 0xbd,
  0xf0, 0x04, 0x38, 0x3c, 0xd0, 0x69, 0x6c, 0xbd, 0xdc, 0x7e, 0x24, 0x3e,
  0x9c, 0xed, 0x72, 0xbd, 0x87, 0x08, 0x4e, 0xbe, 0x38, 0x5f, 0x41, 0xbe,
  0xf0, 0x4c, 0x53, 0x3d, 0x12, 0x0e, 0x96, 0xbd, 0xa8, 0x14, 0x72, 0x3d,
  0xf4, 0xab, 0x4b, 0x3e, 0xa0, 0xcd, 0xa4, 0x3c, 0x50, 0x14, 0x07, 0x3d,
  0xf4, 0xb6, 0x0c, 0xbe, 0x08, 0xfb, 0x12, 0xbe, 0x20, 0x1d, 0x5e, 0x3e,
  0x5c, 0xbb, 0xbf, 0xbd, 0xe4, 0x1e, 0x23, 0xbd, 0xc0, 0x70, 0xd0, 0x3c,
  0x72, 0xd0, 0xdd, 0xbd, 0x50, 0x20, 0x29, 0xbe, 0x7c, 0x2f, 0x53, 0xbd,
  0x30, 0x31, 0xa4, 0x3d, 0x10, 0x66, 0xf1, 0x3c, 0x92, 0x60, 0xe1, 0xbd,
  0x64, 0xd1, 0x5e, 0x3e, 0x64, 0xb9, 0xdf, 0x3d, 0xd4, 0x36, 0x8b, 0x3d,
  0x38, 0x42, 0x14, 0x3e, 0xf2, 0x0a, 0x2e, 0xbe, 0x58, 0x13, 0x4a, 0x3e,
  0x20, 0xef, 0x30, 0x3c, 0x7b, 0x5c, 0x34, 0xbe, 0xc0, 0xac, 0xf5, 0x3c,
  0x39, 0x54, 0x09, 0xbe, 0xdc, 0xf9, 0x5d, 0xbd, 0x7a, 0x78, 0x4e, 0x3e,
  0x54, 0xef, 0x97, 0xbd, 0x40, 0x6e, 0xf3, 0x3c, 0xda, 0xa1, 0xa9, 0xbd,
  0x10, 0x52, 0x58, 0xbd, 0x46, 0x36, 0x1b, 0xbe, 0xf4, 0x58, 0xe4, 0xbd,
  0xc6, 0xf1, 0x2e, 0x3e, 0x3c, 0x76, 0x3e, 0x3e, 0x88, 0x46, 0xb2, 0x3d,
  0x02, 0x4b, 0x01, 0x3e, 0x40, 0xe4, 0xb0, 0x3c, 0xe6, 0x7a, 0x42, 0x3e,
  0xc8, 0xea, 0x1e, 0x3d, 0x3a, 0x4f, 0x33, 0x3e, 0xc0, 0x23, 0xcb, 0x3b,
  0x08, 0x21, 0xab, 0xbd, 0xc6, 0xd1, 0xb6, 0xbd, 0xc7, 0xef, 0x12, 0xbe,
  0x12, 0x77, 0x47, 0x3e, 0x82, 0x58, 0x09, 0x3e, 0x8e, 0x87, 0x16, 0x3e,
  0x98, 0x7b, 0x8b, 0xbc, 0x48, 0x3c, 0x4d, 0xbd, 0xf0, 0x18, 0x43, 0x3d,
  0x9c, 0xaa, 0x84, 0xbd, 0xc4, 0xf6, 0x19, 0xbd, 0x08, 0x64, 0xc5, 0xbc,
  0x90, 0xea, 0x4a, 0xbc, 0xe4, 0xe9, 0x24, 0xbd, 0xc4, 0xa4, 0x9d, 0xbd,
  0x00, 0x68, 0x0e, 0x3d, 0xd0, 0x59, 0x7a, 0xbd, 0x98, 0x88, 0x83, 0xbd,
  0x90, 0x6a, 0x4b, 0x3d, 0xa3, 0xe3, 0xe1, 0xbd, 0xf0, 0x6c, 0x08, 0x3e,
  0x30, 0x89, 0x4b, 0x3d, 0xa7, 0x18, 0xd9, 0xbd, 0x00, 0x5c, 0x31, 0xb9,
  0xb0, 0xf4, 0x31, 0xbd, 0x88, 0x1c, 0xb3, 0xbc, 0x1c, 0xa2, 0xfb, 0x3d,
  0x86, 0x5f, 0x9d, 0xbd, 0x30, 0x03, 0x64, 0xbd, 0xf0, 0x9b, 0x55, 0x3d,
  0x00, 0xfe, 0x61, 0xbc, 0x84, 0x48, 0xb1, 0x3d, 0x60, 0x4c, 0x9d, 0xbb,
  0x06, 0xe1, 0xcb, 0xbd, 0x84, 0x8f, 0x7f, 0xbd, 0xd4, 0x2b, 0x4d, 0xbe,
  0x3c, 0xa5, 0x00, 0x3e, 0x7b, 0x33, 0xc9, 0xbc, 0x40, 0x3b, 0x5c, 0xbe,
  0x2c, 0x06, 0xcc, 0xbe, 0x08, 0x85, 0x18, 0x3e, 0x02, 0xb8, 0xd8, 0xbd,
  0xf3, 0x69, 0x43, 0x3f, 0x36, 0x71, 0x6b, 0x3e, 0x4b, 0x5b, 0x01, 0x3e,
  0xd2, 0xbd, 0x9c, 0x3e, 0xa4, 0xba, 0xfb, 0x3d, 0x53, 0xf0, 0x12, 0xbd,
  0xa9, 0x08, 0x83, 0x3e, 0x4a, 0x40, 0x9e, 0xbd, 0x92, 0x4d, 0x29, 0xbd,
  0x2a, 0xcd, 0x11, 0x3d, 0x79, 0xc3, 0x27, 0x3d, 0x91, 0xd2, 0x73, 0x3d,
  0xfd, 0x9c, 0x10, 0xbc, 0xd8, 0xd4, 0x25, 0x3d, 0x99, 0x2b, 0x7d, 0xbd,
  0xa7, 0x71, 0xa8, 0x3e, 0xdb, 0x49, 0x20, 0x3e, 0x58, 0x15, 0x5d, 0x3d,
  0x3b, 0xb7, 0x9a, 0x3d, 0x2c, 0x4f, 0x9c, 0xbe, 0xdc, 0xf9, 0x7e, 0x3d,
  0x11, 0x0f, 0x33, 0x3e, 0x8a, 0x99, 0x12, 0xbe, 0x3c, 0x36, 0x63, 0x3d,
  0x99, 0xae, 0x3f, 0xbc, 0x39, 0x3b, 0x15, 0xbe, 0x92, 0xfb, 0xa3, 0x3d,
  0x95, 0xb6, 0xc7, 0xbe, 0x81, 0x4b, 0x3e, 0xbe, 0x37, 0x1c, 0x78, 0xbe,
  0xdf, 0x51, 0x3a, 0x3f, 0x22, 0x71, 0xd9, 0x3d, 0x59, 0xcb, 0x98, 0x3e,
  0xd2, 0x42, 0x14, 0xbe, 0x57, 0x2a, 0x5a, 0x3e, 0x70, 0x5e, 0xed, 0x3c,
  0x2b, 0x55, 0x8c, 0x3e, 0x8c, 0x13, 0xce, 0xbe, 0x42, 0xf7, 0x20, 0xbe,
  0x91, 0x19, 0x2a, 0xbe, 0xa8, 0x7f, 0x6d, 0xbe, 0x58, 0x43, 0x2c, 0xbe,
  0xfa, 0x14, 0xba, 0xbe, 0x75, 0xee, 0x3c, 0xbe, 0x71, 0x4f, 0x24, 0xbe,
  0x4f, 0x16, 0x9e, 0x3d, 0x67, 0x0d, 0x1c, 0x3e, 0xf1, 0x1e, 0x95, 0x3d,
  0xbd, 0x2c, 0x4d, 0x3c, 0xe4, 0x54, 0x17, 0xbe, 0xd0, 0x6e, 0x36, 0xbd,
  0xdb, 0x86, 0xa0, 0xbe, 0x64, 0x63, 0x63, 0xbe, 0xc5, 0xcd, 0xaf, 0xbe,
  0xd9, 0x16, 0x4a, 0xbe, 0x07, 0x8f, 0xf8, 0xbd, 0x2b, 0xa3, 0x3b, 0xbe,
  0xfb, 0x3c, 0xa7, 0xbe, 0x50, 0x4b, 0xae, 0x3d, 0x0e, 0x8d, 0xf2, 0xbd,
  0x91, 0x53, 0xd9, 0x3e, 0xa8, 0x9a, 0x8c, 0x3e, 0x5b, 0x60, 0x28, 0xbe,
  0x44, 0x79, 0x43, 0xbe, 0xda, 0x55, 0x1a, 0xbe, 0x43, 0xb1, 0x96, 0xbb,
  0x1d, 0xf4, 0xc1, 0x3d, 0x19, 0x12, 0x74, 0xbd, 0x53, 0xb6, 0x69, 0xbd,
  0x5e, 0xd9, 0x3f, 0xbc, 0x37, 0xcf, 0x14, 0xbd, 0xa7, 0x2a, 0xb1, 0xbc,
  0x8e, 0x68, 0xd1, 0xbe, 0xfe, 0x50, 0xbc, 0xbd, 0x11, 0x12, 0xa2, 0xbd,
  0x86, 0xb6, 0x6d, 0xbe, 0x13, 0x2b, 0x21, 0x3e, 0x6b, 0xe0, 0x4b, 0xbd,
  0xd5, 0x4f, 0x34, 0xbe, 0xb9, 0x2b, 0x31, 0x3d, 0x9f, 0x3a, 0xab, 0x3d,
  0x70, 0x95, 0x87, 0xbe, 0x0a, 0x3f, 0x64, 0xbe, 0x91, 0x34, 0x35, 0x3d,
  0x22, 0x2d, 0x69, 0xbe, 0xfc, 0xe5, 0x21, 0x3e, 0x8f, 0x37, 0x19, 0xbe,
  0x75, 0x28, 0x0b, 0xbd, 0xc9, 0x36, 0xfc, 0xbd, 0x24, 0x4c, 0x0d, 0x3e,
  0xa0, 0x5a, 0x39, 0xbe, 0xa3, 0xed, 0x49, 0xbe, 0xdb, 0xa3, 0xb6, 0x3e,
  0x8e, 0x60, 0x56, 0x3d, 0x61, 0xac, 0xb8, 0x3e, 0x48, 0xe7, 0x03, 0x3e,
  0x39, 0xeb, 0x91, 0xbe, 0x3c, 0x01, 0x7e, 0x3e, 0x6a, 0xa0, 0x44, 0x3d,
  0x3c, 0x7c, 0x06, 0xbe, 0xb2, 0xec, 0xbc, 0x3d, 0x4c, 0x87, 0x04, 0xbe,
  0xb5, 0xde, 0x1e, 0xbe, 0x66, 0xd4, 0x06, 0xbe, 0xd8, 0x91, 0x87, 0xbd,
  0xc7, 0x84, 0x60, 0xbd, 0xbf, 0xe1, 0x16, 0x3e, 0x7e, 0xd7, 0x47, 0xbd,
  0xac, 0x81, 0x5b, 0x3d, 0x11, 0xcc, 0x3f, 0xbe, 0xd4, 0xd6, 0xca, 0xbe,
  0xf3, 0x07, 0xcf, 0x3d, 0xfe, 0x13, 0xc7, 0xbc, 0x28, 0xc8, 0x72, 0x3d,
  0x70, 0x4d, 0x89, 0xbe, 0x01, 0x6c, 0xd0, 0xbd, 0x6b, 0x8b, 0x69, 0x3d,
  0x9c, 0x36, 0x10, 0xbd, 0x64, 0x0f, 0x3b, 0x3e, 0xb5, 0x8e, 0x25, 0xbd,
  0xeb, 0x26, 0x08, 0xbf, 0x84, 0x6d, 0x83, 0x3e, 0xac, 0x33, 0x63, 0xbd,
  0x1a, 0x97, 0x09, 0xbe, 0x59, 0x14, 0x17, 0xbe, 0x8e, 0xc5, 0xd9, 0xbd,
  0x13, 0x80, 0xeb, 0xbc, 0xf0, 0x27, 0x42, 0xbe, 0x50, 0xe4, 0x58, 0xbe,
  0x01, 0xef, 0x00, 0xbe, 0xe2, 0x90, 0x0f, 0xbd, 0x3f, 0x7b, 0xce, 0xbd,
  0x0f, 0xd6, 0xea, 0xbd, 0xb0, 0x70, 0x16, 0x3e, 0xb4, 0x12, 0xa6, 0x3d,
  0x9b, 0xdc, 0x32, 0xbe, 0x4d, 0x7f, 0x40, 0xbe, 0xd4, 0x45, 0xb8, 0xbe,
  0xc3, 0x12, 0xa0, 0xb9, 0x6c, 0xc3, 0xd1, 0xbb, 0x24, 0x52, 0x3b, 0xbd,
  0xb0, 0x0a, 0x83, 0xbd, 0xbf, 0xd1, 0x00, 0xbe, 0xa9, 0xe9, 0x9f, 0xbd,
  0x1d, 0x4a, 0x79, 0xbd, 0xf5, 0x42, 0x4d, 0xbd, 0xba, 0x5f, 0xa9, 0x3d,
  0x8c, 0xf8, 0x08, 0x3e, 0x78, 0xba, 0x07, 0x3d, 0x51, 0x2b, 0x6f, 0xbe,
  0x42, 0x51, 0xe8, 0xbb, 0xc7, 0xe4, 0x86, 0xbe, 0xb1, 0x2d, 0x7f, 0xbe,
  0x7f, 0x04, 0x4a, 0x3c, 0x41, 0x13, 0x52, 0x3e, 0x86, 0x49, 0x5e, 0x3e,
  0xf0, 0x19, 0x3b, 0xbe, 0x33, 0x41, 0xb0, 0x3d, 0xf5, 0x86, 0x7f, 0xbe,
  0x55, 0xd8, 0xcd, 0x3d, 0x00, 0x44, 0xee, 0x3c, 0xee, 0xda, 0x11, 0x3e,
  0xc6, 0xb3, 0xef, 0xbd, 0x68, 0xbb, 0x58, 0x3d, 0xcf, 0x19, 0xf1, 0xbd,
  0x0b, 0x05, 0xda, 0x3d, 0xea, 0xcb, 0x6a, 0x3e, 0x41, 0xac, 0x1f, 0x3e,
  0xe9, 0x88, 0x9f, 0x3c, 0x28, 0xa4, 0xe9, 0x3d, 0x6d, 0x9e, 0x6e, 0x3d,
  0x09, 0x9b, 0x1f, 0xbe, 0x20, 0x74, 0x6f, 0x3c, 0x00, 0xdf, 0x21, 0xbd,
  0x3f, 0x31, 0x01, 0xbe, 0xb4, 0x7e, 0x6c, 0xbe, 0x8e, 0x5b, 0x3f, 0xbe,
  0x32, 0x2f, 0x98, 0x3c, 0x00, 0xae, 0xa0, 0x3d, 0xdc, 0x04, 0xc5, 0xbd,
  0xbf, 0x69, 0x8b, 0xbd, 0xcf, 0xae, 0x36, 0xbe, 0x61, 0x64, 0xb2, 0xbd,
  0x17, 0x43, 0xf8, 0x3d, 0x9e, 0xfd, 0x83, 0xbb, 0xcd, 0x12, 0x0f, 0xbe,
  0x91, 0x4e, 0x11, 0xbe, 0x17, 0x88, 0x0c, 0xbe, 0x15, 0xeb, 0xfb, 0x3b,
  0x10, 0x20, 0x60, 0x3b, 0x9a, 0x26, 0x50, 0x3d, 0x56, 0xd3, 0x3c, 0xbe,
  0x87, 0x1c, 0x01, 0xbe, 0x0c, 0x25, 0x94, 0xbd, 0xfc, 0xfd, 0x89, 0xbd,
  0xa1, 0x2b, 0x83, 0x3c, 0xd2, 0xb9, 0xd3, 0xbc, 0x49, 0x01, 0x84, 0x3d,
  0x73, 0x78, 0xe3, 0xbb, 0x87, 0x75, 0x39, 0x3e, 0xa6, 0xdd, 0x16, 0x3e,
  0xe9, 0xd8, 0x1e, 0xbe, 0x50, 0xca, 0x23, 0x3d, 0x44, 0x1b, 0x15, 0xbe,
  0x52, 0x3a, 0x0d, 0xbe, 0x20, 0x3b, 0x44, 0x3e, 0x5a, 0x2f, 0x91, 0xbc,
  0xc5, 0xb9, 0x66, 0xbd, 0x94, 0xee, 0x86, 0x3d, 0x3d, 0x43, 0x3a, 0x3e,
  0xe1, 0xda, 0xcc, 0x3d, 0xc9, 0x22, 0xb5, 0xbd, 0xbc, 0x54, 0x1f, 0xbe,
  0x85, 0xac, 0x8f, 0xbd, 0xb0, 0x35, 0x3a, 0x3e, 0xcf, 0x0a, 0xe6, 0xbd,
  0x83, 0x07, 0x6c, 0xbe, 0xfe, 0x2a, 0xe3, 0xbd, 0x34, 0x0c, 0x25, 0x3e,
  0x3b, 0x20, 0x86, 0x3d, 0x63, 0x3b, 0x21, 0xbe, 0x39, 0x18, 0xc5, 0x3d,
  0xa0, 0x05, 0x3f, 0xbe, 0xdc, 0x5d, 0x03, 0x3e, 0xee, 0x70, 0x33, 0xbe,
  0xd5, 0x04, 0xe1, 0xbd, 0xde, 0xa1, 0x3a, 0xbe, 0xc3, 0x5e, 0x1e, 0xbe,
  0x6a, 0xb3, 0x1c, 0xbe, 0x7a, 0xde, 0x2f, 0x3e, 0x32, 0xed, 0xd1, 0x3d,
  0x34, 0x27, 0x93, 0x3c, 0xbd, 0xf8, 0x2c, 0xbe, 0x9b, 0xd6, 0x88, 0x3d,
  0x38, 0xcd, 0xaa, 0x3d, 0xc7, 0x3c, 0x88, 0xbd, 0x5c, 0xcd, 0x33, 0x3e,
  0xf2, 0x27, 0xa5, 0x3d, 0xf0, 0x36, 0xe9, 0x3c, 0xad, 0xc1, 0x69, 0xbe,
  0xd1, 0x60, 0xc7, 0x3d, 0x24, 0x9f, 0xc6, 0xbd, 0x45, 0x83, 0x83, 0xbc,
  0x49, 0xbd, 0x81, 0x3d, 0x11, 0x01, 0x31, 0xbe, 0x75, 0xae, 0x24, 0x3e,
  0xd1, 0x11, 0x57, 0x3d, 0xcc, 0xd7, 0x07, 0x3e, 0xc7, 0x10, 0xdd, 0x3d,
  0x52, 0x6f, 0x33, 0xbe, 0xe8, 0x40, 0x32, 0x3e, 0x3f, 0x07, 0x13, 0xbe,
  0x5a, 0xc8, 0xc3, 0xbd, 0xba, 0x9f, 0x0d, 0xbe, 0x5b, 0x82, 0xf4, 0xbb,
  0xca, 0x94, 0x4d, 0xbe, 0xee, 0x69, 0xaf, 0xbd, 0x0e, 0x88, 0xa1, 0xbc,
  0x22, 0x8d, 0x61, 0x3c, 0x9f, 0x25, 0x56, 0x3d, 0x37, 0xc8, 0x36, 0xbe,
  0x71, 0x11, 0x4c, 0x3e, 0x34, 0x13, 0xf9, 0x3d, 0x6b, 0x23, 0x0f, 0x3d,
  0xaf, 0x5f, 0x1b, 0x3e, 0x14, 0xe5, 0x12, 0xbe, 0x11, 0x11, 0x2b, 0xbe,
  0xc8, 0xa0, 0x1d, 0xbd, 0x64, 0x26, 0x8c, 0xbd, 0x48, 0xe6, 0x0f, 0x3d,
  0xff, 0xb4, 0x2d, 0xbe, 0xad, 0x39, 0x3b, 0xbe, 0xe4, 0xa5, 0x0b, 0x3e,
  0x9e, 0x35, 0x1a, 0xbe, 0x84, 0x1c, 0x55, 0x3e, 0x7e, 0x02, 0x41, 0xbe,
  0x48, 0xfe, 0x25, 0x3e, 0x3c, 0x02, 0xf5, 0x3d, 0x44, 0xb5, 0xae, 0xbd,
  0xca, 0x0a, 0x00, 0xbe, 0x0d, 0x45, 0x04, 0xbe, 0x30, 0xf2, 0x5a, 0x3d,
  0x0c, 0x58, 0x12, 0xbd, 0xbc, 0x79, 0x96, 0x3d, 0xd0, 0xf9, 0x25, 0x3e,
  0x00, 0x0d, 0x6f, 0x3d, 0x58, 0x0c, 0x1c, 0xbe, 0xa8, 0x2b, 0xe6, 0x3c,
  0x52, 0x67, 0x8f, 0xbd, 0x4d, 0xec, 0x24, 0xbe, 0xa2, 0x09, 0xaa, 0xbd,
  0xcc, 0xa9, 0xa7, 0x3d, 0x90, 0xff, 0xfa, 0xbd, 0x3e, 0x3e, 0x1c, 0xbe,
  0x60, 0xc2, 0x9e, 0x3d, 0x4c, 0x57, 0x2c, 0x3e, 0x88, 0x41, 0x69, 0x3d,
  0x60, 0xc9, 0x86, 0x3d, 0xe7, 0x77, 0x2e, 0xbe, 0xa7, 0xc4, 0x4c, 0xbe,
  0x34, 0x7f, 0x9e, 0x3d, 0xbc, 0xd2, 0x9f, 0x3d, 0x88, 0x08, 0x6b, 0x3d,
  0xc4, 0xed, 0x35, 0xbd, 0x6c, 0x62, 0x56, 0x3e, 0xc4, 0x34, 0x02, 0x3e,
  0xdc, 0xd4, 0x2b, 0xbe, 0xb4, 0xa2, 0x26, 0xbe, 0x3b, 0xda, 0x1e, 0xbe,
  0xdc, 0x47, 0x13, 0x3e, 0x70, 0x16, 0x61, 0x3d, 0x88, 0xcc, 0xe9, 0x3d,
  0xf0, 0xba, 0x88, 0x3c, 0xb0, 0x8f, 0x41, 0xbe, 0xe0, 0xd1, 0x8d, 0x3b,
  0xc0, 0x54, 0x1a, 0x3e, 0xc0, 0x11, 0xda, 0xbb, 0xcc, 0x75, 0x5b, 0xbe,
  0xb6, 0x71, 0x43, 0xbe, 0x1c, 0x07, 0xa5, 0x3d, 0x06, 0x7b, 0xe6, 0xbd,
  0x58, 0xdd, 0xf3, 0xbc, 0xe0, 0xb4, 0x46, 0x3d, 0xa2, 0xcd, 0xc1, 0xbd,
  0x70, 0x06, 0x47, 0xbe, 0xd0, 0x69, 0x3d, 0x3e, 0xc2, 0x03, 0x5f, 0xbe,
  0x8a, 0x8c, 0x26, 0xbe, 0x92, 0xbc, 0xaa, 0xbd, 0xa0, 0x96, 0x64, 0xbc,
  0xa6, 0x9f, 0x09, 0xbe, 0xb6, 0xcb, 0xa9, 0xbd, 0x1c, 0x6d, 0xd6, 0x3d,
  0xc0, 0x0e, 0x21, 0xbe, 0x84, 0x76, 0x2c, 0x3e, 0x20, 0x03, 0x25, 0x3e,
  0x28, 0x83, 0xad, 0x3c, 0x88, 0x76, 0xc4, 0x3d, 0x45, 0x89, 0x49, 0xbe,
  0xd6, 0xc3, 0x34, 0x3e, 0xbc, 0x93, 0xba, 0x3d, 0x6c, 0xaf, 0xd6, 0xbd,
  0x14, 0xb4, 0x36, 0xbd, 0xa0, 0xef, 0xdc, 0xbc, 0x18, 0xc2, 0x95, 0xbc,
  0x1c, 0x89, 0x29, 0x3e, 0x66, 0xf4, 0x03, 0x3e, 0xe4, 0x69, 0x1f, 0xbe,
  0x4e, 0xb5, 0x49, 0x3e, 0xc9, 0xb8, 0x2f, 0xbe, 0x4b, 0x11, 0x0a, 0xbe,
  0x64, 0xde, 0xcb, 0x3d, 0x4a, 0x64, 0x48, 0x3e, 0x34, 0x07, 0xcf, 0x3d,
  0xde, 0xca, 0x18, 0x3e, 0x00, 0x57, 0x67, 0xbe, 0x01, 0x5c, 0xae, 0xbc,
  0x6a, 0x82, 0x2e, 0xbd, 0x10, 0xc4, 0x7a, 0x3c, 0x38, 0xb3, 0x21, 0xbe,
  0x07, 0x40, 0x19, 0xbe, 0xbf, 0x8b, 0x1b, 0xbe, 0xe2, 0x26, 0xb4, 0xbe,
  0xf7, 0x11, 0x9f, 0xbd, 0x12, 0xd7, 0x3a, 0xbe, 0xc3, 0x07, 0x8e, 0x3c,
  0x5d, 0x41, 0x4a, 0xbe, 0xe3, 0x44, 0xad, 0xbd, 0x5b, 0x44, 0x0d, 0x3c,
  0x9b, 0xa0, 0x83, 0xbe, 0x49, 0xe5, 0x7b, 0xbe, 0xab, 0x53, 0x0a, 0x3e,
  0x1a, 0xef, 0xc6, 0xbb, 0x70, 0xef, 0x7f, 0xbd, 0x5e, 0xf3, 0x5d, 0xbe,
  0x8d, 0xa2, 0x4d, 0x3e, 0x92, 0x8d, 0x32, 0xbe, 0x03, 0x1b, 0x83, 0xbe,
  0x47, 0x04, 0x7f, 0x3d, 0x06, 0x36, 0x8d, 0xbe, 0x30, 0xa0, 0x16, 0xbe,
  0x96, 0x33, 0x19, 0x3e, 0xcc, 0xa0, 0x02, 0x3d, 0xb0, 0xcc, 0x09, 0xbd,
  0xae, 0xd2, 0x3c, 0x3e, 0xfd, 0x5a, 0x37, 0xbe, 0x58, 0x65, 0x30, 0x3e,
  0x9b, 0x41, 0x58, 0xbb, 0x30, 0x2d, 0x68, 0x3c, 0x25, 0x8e, 0x53, 0x3d,
  0xd7, 0x43, 0x03, 0x3f, 0xa5, 0x86, 0x67, 0x3b, 0xf2, 0x55, 0x98, 0x3e,
  0x54, 0xd0, 0x06, 0xbe, 0x31, 0x99, 0x74, 0x3e, 0x2e, 0xa2, 0x4e, 0x3e,
  0x56, 0x87, 0x28, 0x3e, 0x69, 0x8e, 0xcb, 0xbd, 0x6b, 0x82, 0x48, 0x3e,
  0xb9, 0xbf, 0x75, 0x3d, 0x75, 0x80, 0xa9, 0x3d, 0x1b, 0x5b, 0x27, 0x3e,
  0x94, 0x84, 0xee, 0xbd, 0x98, 0x18, 0xf2, 0xbc, 0xdf, 0x1d, 0xab, 0x3d,
  0xa6, 0xff, 0x8c, 0x3e, 0x77, 0x1c, 0x14, 0x3e, 0x46, 0xfb, 0x2a, 0x3d,
  0xde, 0x2b, 0xd2, 0xbe, 0xd8, 0xca, 0x85, 0x3d, 0xf4, 0x8d, 0xe8, 0xbd,
  0x28, 0x1a, 0x3f, 0xbd, 0xa1, 0x12, 0xc9, 0x3d, 0x48, 0xb7, 0x97, 0x3d,
  0x2d, 0xc5, 0x44, 0x3d, 0xb9, 0x29, 0x27, 0xbd, 0xac, 0xd5, 0x2b, 0xbe,
  0xeb, 0xed, 0x05, 0x3c, 0x7a, 0x15, 0x59, 0x3e, 0x07, 0x66, 0x01, 0xbd,
  0x59, 0xcb, 0x2d, 0x3f, 0xc0, 0x17, 0xbb, 0x3e, 0x98, 0xc5, 0x85, 0x3e,
  0x96, 0x0f, 0xb0, 0x3e, 0xab, 0xec, 0xd5, 0x3b, 0x6c, 0x3f, 0x14, 0xbe,
  0x82, 0x44, 0x93, 0x39, 0xad, 0x49, 0x94, 0xbe, 0x76, 0x7c, 0xf2, 0x3d,
  0xd4, 0x11, 0x1e, 0x3e, 0x0b, 0xc3, 0x5f, 0xbe, 0x50, 0x97, 0x4b, 0x3d,
  0xba, 0x9a, 0x7f, 0x3c, 0x65, 0x8e, 0x4f, 0xbe, 0xcc, 0x26, 0xd2, 0x3d,
  0xae, 0x09, 0xb4, 0x3e, 0x1c, 0x49, 0x5b, 0x3d, 0xd0, 0xa5, 0x91, 0xba,
  0xf3, 0x4e, 0x23, 0xbe, 0x4f, 0xb4, 0x89, 0xbe, 0x44, 0xf3, 0x48, 0x3e,
  0xe5, 0x44, 0xf3, 0x3d, 0xc4, 0x3f, 0x0a, 0x3c, 0x7c, 0x40, 0xda, 0x3d,
  0x9d, 0x63, 0xce, 0x3d, 0x4b, 0xca, 0x2d, 0x3d, 0xaf, 0x50, 0x91, 0xbd,
  0x3d, 0x9a, 0x92, 0xbe, 0x98, 0x64, 0xfe, 0xbc, 0xd2, 0x9f, 0x1a, 0xbd,
  0xc8, 0xe2, 0xa9, 0x3e, 0x70, 0x87, 0x0b, 0x3c, 0x6a, 0xdd, 0x65, 0x3e,
  0x4a, 0x66, 0xa0, 0xbc, 0xd3, 0x73, 0xde, 0xbd, 0xb6, 0x63, 0xf4, 0x3d,
  0xf8, 0x30, 0x99, 0xbd, 0x31, 0xae, 0x14, 0x3e, 0x48, 0xc4, 0x3a, 0xbe,
  0x7a, 0x52, 0x09, 0xbe, 0xfe, 0xd1, 0x02, 0xbe, 0x18, 0x50, 0xdd, 0xb7,
  0xcf, 0x5c, 0xd6, 0x3a, 0x30, 0x59, 0x1e, 0x3d, 0xa4, 0xc9, 0x63, 0x3d,
  0xaa, 0xb4, 0x3d, 0x3e, 0xbb, 0xcc, 0xd9, 0x3d, 0xf1, 0x2e, 0xc4, 0x3e,
  0x9b, 0xf8, 0x4b, 0xbd, 0x28, 0x5e, 0x9d, 0x3e, 0x64, 0x8e, 0x0b, 0x3e,
  0x1b, 0x29, 0xa6, 0xbd, 0x93, 0x48, 0xb1, 0x3d, 0x0c, 0xef, 0xe2, 0xbd,
  0xb7, 0x53, 0x9d, 0xbe, 0x60, 0x48, 0xc7, 0xbc, 0x1b, 0x31, 0x87, 0xbe,
  0x61, 0xad, 0x5c, 0xbe, 0xa4, 0x04, 0x48, 0x3e, 0x6a, 0xf5, 0xfd, 0x3d,
  0xf2, 0x81, 0xb7, 0xbe, 0x01, 0xe6, 0x94, 0xbe, 0x55, 0xe8, 0xaa, 0x3c,
  0xd7, 0xe8, 0x37, 0x3d, 0x06, 0x97, 0x36, 0xbe, 0xf8, 0xc9, 0xaf, 0x3c,
  0x7b, 0x69, 0xdd, 0xbd, 0x48, 0x36, 0xa5, 0x3d, 0x8e, 0xfe, 0x46, 0xbe,
  0x7d, 0xb0, 0xc4, 0x3d, 0xe5, 0xfb, 0x0f, 0xbe, 0xe4, 0x43, 0x82, 0xbe,
  0x86, 0xe1, 0x71, 0xbe, 0xec, 0x83, 0x8e, 0xbd, 0xc2, 0x08, 0x9e, 0xbe,
  0xa7, 0x5e, 0x99, 0xbe, 0x57, 0xbf, 0x4b, 0xbd, 0x9b, 0x1e, 0x66, 0xbd,
  0x29, 0xf4, 0x92, 0x3d, 0x7b, 0xed, 0xb8, 0xbd, 0xdd, 0x4f, 0x04, 0x3e,
  0xb6, 0x47, 0x5e, 0xbe, 0xb2, 0xc3, 0x26, 0xbe, 0x50, 0xe4, 0x52, 0xbe,
  0xd2, 0x71, 0x70, 0xbe, 0x6a, 0xac, 0xce, 0xbd, 0x6f, 0x38, 0x8e, 0xbc,
  0x07, 0x72, 0x91, 0xbe, 0x6c, 0xd3, 0xf0, 0x3d, 0xcb, 0x47, 0xe3, 0xbd,
  0xe8, 0x98, 0xb4, 0x3c, 0x0c, 0x8b, 0xbf, 0xbe, 0xe8, 0x5f, 0x6b, 0xbe,
  0x06, 0x0c, 0xd7, 0x3d, 0x19, 0x3c, 0x03, 0x3d, 0x93, 0x23, 0xb7, 0x3c,
  0x1b, 0xfa, 0xbb, 0xbe, 0xc5, 0x42, 0xc5, 0xbe, 0x56, 0x6c, 0x4e, 0xbd,
  0x5e, 0x9f, 0xff, 0xbd, 0x10, 0x70, 0x1e, 0xbe, 0xf1, 0xed, 0x98, 0xbd,
  0xfe, 0x84, 0x47, 0x3d, 0x9a, 0xb4, 0x54, 0x3e, 0x8b, 0x6f, 0xc5, 0x3b,
  0x45, 0xb5, 0x5b, 0xbe, 0x0f, 0xef, 0xce, 0x3c, 0x13, 0xa9, 0xda, 0xbd,
  0xa8, 0xd3, 0x9d, 0x3c, 0xba, 0x10, 0x12, 0x3e, 0x8e, 0x17, 0xbf, 0xbd,
  0xf0, 0xf3, 0x2b, 0x3d, 0x41, 0x4f, 0xf6, 0x3c, 0x26, 0xce, 0xc3, 0xbd,
  0x13, 0x08, 0xaf, 0xbe, 0xa4, 0x52, 0x14, 0x3e, 0x5b, 0x17, 0x07, 0x3e,
  0xf6, 0x2d, 0x99, 0xbd, 0x56, 0x2e, 0x30, 0xbe, 0x3e, 0xd9, 0xe2, 0xbc,
  0x8b, 0xec, 0xf6, 0xbe, 0x70, 0x54, 0x8f, 0xbe, 0x06, 0xa0, 0x22, 0x3e,
  0xfe, 0x0e, 0xea, 0x3d, 0xf8, 0xec, 0xfb, 0x3e, 0x54, 0xdc, 0x3b, 0x3e,
  0xbf, 0xf6, 0x96, 0x3d, 0x04, 0xe3, 0x90, 0x3e, 0x1a, 0xea, 0xf3, 0x3d,
  0x95, 0x0e, 0x99, 0x3e, 0x5d, 0x31, 0x9c, 0x3c, 0x12, 0xd8, 0x90, 0xbb,
  0x6b, 0x97, 0x8d, 0xbe, 0xf8, 0x0e, 0x29, 0xbe, 0x4b, 0x6b, 0x81, 0xbd,
  0x22, 0x08, 0xa3, 0xbe, 0xf0, 0x69, 0xae, 0x3e, 0x1c, 0x9f, 0x3b, 0x3f,
  0xa4, 0xe1, 0x67, 0x3e, 0xf2, 0x90, 0x62, 0x3f, 0x17, 0x99, 0xa1, 0x3c,
  0x63, 0x2e, 0x5f, 0xbe, 0x8d, 0xa2, 0x0f, 0x3e, 0x56, 0x29, 0xd5, 0xbd,
  0x69, 0xf2, 0x24, 0xbe, 0xf2, 0xe4, 0x2c, 0xbe, 0xb0, 0x38, 0x96, 0xbe,
  0x1d, 0xeb, 0x03, 0xbe, 0x3e, 0x30, 0x2e, 0xbe, 0x48, 0xe5, 0x23, 0x3e,
  0x91, 0xc6, 0xed, 0xbe, 0xb1, 0xa5, 0x65, 0xbe, 0x36, 0x07, 0xae, 0xbe,
  0xbd, 0xa1, 0x97, 0x3d, 0xe3, 0x24, 0xcc, 0x3d, 0xe8, 0xe2, 0x63, 0xbd,
  0x7d, 0x7a, 0x82, 0xbe, 0x53, 0x34, 0x89, 0xbe, 0xc8, 0x1c, 0xa3, 0x3d,
  0xc4, 0xf0, 0xad, 0xbc, 0x29, 0x12, 0x91, 0xbe, 0x86, 0xa4, 0x8c, 0xbe,
  0x03, 0x77, 0xbd, 0xbd, 0x68, 0x6e, 0x2f, 0x3e, 0x7f, 0x8e, 0x1c, 0xbe,
  0xb9, 0xe2, 0xb9, 0xbe, 0xb8, 0x85, 0x7c, 0x3c, 0x84, 0xc4, 0x28, 0xbd,
  0x75, 0xfb, 0x53, 0xba, 0x5f, 0x1a, 0xb6, 0xbd, 0x4f, 0xeb, 0x38, 0x3e,
  0xfe, 0xc0, 0x26, 0xbe, 0x09, 0xb4, 0xc2, 0xbd, 0xfe, 0x2e, 0xbb, 0x3d,
  0xa7, 0xfd, 0x13, 0xbe, 0xd4, 0xe1, 0x43, 0xbe, 0x2e, 0x8a, 0x96, 0xbe,
  0x16, 0x23, 0xef, 0x3d, 0x60, 0x8d, 0x9f, 0x3b, 0xf6, 0xf5, 0x06, 0x3e,
  0xc7, 0x2e, 0x0d, 0xbe, 0x1a, 0x00, 0x68, 0xbf, 0x44, 0x6b, 0x1c, 0x3e,
  0x3d, 0x7d, 0x08, 0x3c, 0x13, 0xaf, 0xa7, 0x3d, 0x3d, 0xfb, 0xd8, 0xbd,
  0xc3, 0x1b, 0xb0, 0xbe, 0x8d, 0xf9, 0x67, 0xbe, 0x70, 0x36, 0x9a, 0xbc,
  0x06, 0xb5, 0x45, 0xbe, 0x35, 0xd6, 0x7f, 0xbe, 0x6d, 0xcf, 0x76, 0xbe,
  0xbb, 0x04, 0x05, 0xbd, 0xf8, 0xd2, 0xcc, 0x3d, 0xf2, 0xd4, 0x23, 0xbc,
  0x8c, 0xd6, 0x16, 0xbf, 0x65, 0x02, 0x8e, 0xbc, 0xb8, 0x08, 0x15, 0xbe,
  0x54, 0xa2, 0x84, 0xbb, 0xce, 0xaf, 0x1f, 0x3e, 0x27, 0x4f, 0x49, 0xbb,
  0xe5, 0x35, 0xa9, 0xbe, 0x45, 0xe9, 0xde, 0x3d, 0x6c, 0xf9, 0x85, 0xbe,
  0xaa, 0x37, 0x48, 0xbe, 0x1c, 0xd6, 0xca, 0xbe, 0xdd, 0x31, 0x69, 0xbe,
  0x8e, 0xf6, 0x7c, 0xbe, 0xcc, 0x69, 0x28, 0x3e, 0x27, 0x9f, 0xaf, 0x3d,
  0x83, 0xcc, 0x5e, 0x3f, 0xf1, 0x29, 0xed, 0x3e, 0x26, 0x95, 0x4d, 0x3e,
  0x92, 0x8f, 0x1c, 0x3e, 0x8c, 0x92, 0x0f, 0x3e, 0x9b, 0x58, 0xcf, 0xbc,
  0xbb, 0x0f, 0xe7, 0x3e, 0x9b, 0x1a, 0x54, 0xbd, 0x0b, 0xdd, 0x83, 0x3c,
  0xe8, 0x92, 0xba, 0xbe, 0x92, 0x23, 0x0a, 0x3d, 0x83, 0xbf, 0x88, 0x3e,
  0xf9, 0xfd, 0xb4, 0xbc, 0x93, 0x19, 0x18, 0xbe, 0x9b, 0x3d, 0x45, 0x3c,
  0x27, 0x35, 0x76, 0x3f, 0xdf, 0x25, 0xb5, 0xbd, 0xb2, 0x05, 0x0a, 0x3f,
  0xb1, 0xa5, 0xd3, 0x3c, 0xce, 0xdf, 0xe2, 0x3e, 0x8d, 0x32, 0x6d, 0xbc,
  0x00, 0x36, 0x0c, 0x3f, 0x26, 0x2c, 0x26, 0xbe, 0xca, 0x95, 0x7d, 0x3d,
  0x62, 0x82, 0xcb, 0x3d, 0xa9, 0x97, 0x7d, 0xbe, 0xef, 0xc9, 0x53, 0x3e,
  0x72, 0x42, 0x0f, 0xbe, 0xb4, 0xc3, 0x47, 0x3e, 0xac, 0x06, 0xf3, 0x3d,
  0x72, 0x08, 0x91, 0x3f, 0xae, 0x3b, 0x10, 0x3e, 0xa1, 0x0b, 0x5b, 0x3f,
  0x0f, 0x34, 0x80, 0xbd, 0x92, 0x2f, 0xb5, 0x3e, 0xfc, 0x0b, 0xb3, 0xbd,
  0x46, 0x90, 0x45, 0x3f, 0x66, 0x11, 0x5a, 0xbe, 0x28, 0x6f, 0x16, 0x3e,
  0xf0, 0xc0, 0xb1, 0xbe, 0x0e, 0xe9, 0x59, 0xba, 0xd6, 0x9d, 0xdb, 0xbd,
  0xab, 0x10, 0x20, 0xbe, 0xf8, 0x15, 0x6f, 0xbd, 0xc7, 0xb7, 0x9f, 0xbe,
  0x7b, 0x7c, 0x6e, 0x3e, 0xe9, 0x86, 0x46, 0x3e, 0xdf, 0x7e, 0x0e, 0x3e,
  0x09, 0xf6, 0x5a, 0xbd, 0x2e, 0x14, 0x19, 0x3e, 0x16, 0x45, 0x9c, 0x3d,
  0xd1, 0xdc, 0x8a, 0xbe, 0xf6, 0xa1, 0xca, 0xbe, 0xb2, 0x51, 0x3a, 0xbe,
  0xa0, 0x32, 0xb1, 0xbe, 0xea, 0xa7, 0xf9, 0xbd, 0xd5, 0xfb, 0xe7, 0xbd,
  0x23, 0xdc, 0x61, 0xbe, 0x25, 0x9b, 0x19, 0xbe, 0xac, 0x15, 0x24, 0xbe,
  0xca, 0x9c, 0x6d, 0x3f, 0x2a, 0xc7, 0x38, 0x3e, 0x1d, 0x91, 0x4e, 0x3e,
  0x1d, 0x5c, 0x57, 0x3d, 0xd7, 0xf6, 0xf5, 0x3d, 0xf7, 0x4b, 0x35, 0x3d,
  0xf5, 0x6e, 0x66, 0x3e, 0x7f, 0xcc, 0x90, 0xbe, 0x2a, 0x97, 0xde, 0x3d,
  0x1e, 0x07, 0x9e, 0xbe, 0xb7, 0xee, 0x34, 0xbe, 0x3b, 0x13, 0xa3, 0xbe,
  0x41, 0x9c, 0x84, 0xbe, 0x68, 0x13, 0x9e, 0xbd, 0x0c, 0xa3, 0x08, 0xbe,
  0x30, 0xd5, 0x0e, 0x3f, 0x7c, 0xb7, 0x8e, 0x3b, 0x53, 0x97, 0x63, 0x3e,
  0x95, 0x52, 0x9f, 0xbd, 0xa5, 0xa6, 0xbb, 0xbd, 0x05, 0x33, 0x26, 0xbd,
  0xb0, 0xe4, 0x19, 0xbe, 0x88, 0x3f, 0xc7, 0xbe, 0xe3, 0x1e, 0xee, 0xbd,
  0x6e, 0x71, 0xaf, 0xbe, 0xa6, 0x1c, 0x3b, 0xbe, 0x46, 0xed, 0xb3, 0xbd,
  0x58, 0x56, 0x34, 0xbe, 0x98, 0x30, 0x41, 0x3e, 0x7d, 0xa5, 0xc4, 0x3d,
  0xd5, 0x73, 0x29, 0xbe, 0x60, 0x8c, 0xfd, 0x3c, 0xd4, 0xcb, 0x04, 0x3e,
  0xb9, 0x51, 0x5e, 0xbe, 0x2d, 0xa8, 0x4a, 0x3c, 0x68, 0xac, 0xbe, 0xbd,
  0xb0, 0x99, 0x99, 0xbe, 0xce, 0x24, 0xd7, 0x3d, 0x30, 0x54, 0xfd, 0x3d,
  0x73, 0x4d, 0x10, 0x3b, 0x8b, 0x57, 0x29, 0xbe, 0xad, 0x1e, 0x40, 0xbe,
  0xf9, 0x1d, 0xc3, 0x3d, 0xbe, 0xe4, 0x50, 0x3e, 0xc0, 0xec, 0x00, 0x3e,
  0x57, 0x8a, 0xd7, 0xbd, 0x6b, 0x14, 0x3f, 0xbe, 0x96, 0x38, 0xf9, 0x3d,
  0xf8, 0xb5, 0x24, 0x3e, 0xe2, 0xdf, 0xd9, 0x3e, 0x1c, 0x84, 0x91, 0x3e,
  0x65, 0x1c, 0xb8, 0xbb, 0x12, 0xf2, 0x08, 0xbe, 0x6c, 0x0a, 0x08, 0xbf,
  0x37, 0xa4, 0xaf, 0xbd, 0x01, 0x2d, 0x1d, 0xbd, 0xab, 0x4f, 0x90, 0xbd,
  0xa7, 0xb9, 0xbe, 0x3d, 0x64, 0x96, 0xe9, 0x3d, 0xb2, 0x14, 0x31, 0x3e,
  0x6f, 0x15, 0xc7, 0x3e, 0x36, 0xf1, 0x49, 0xbe, 0x03, 0xdc, 0x1f, 0xbe,
  0xe9, 0x32, 0x0b, 0x3e, 0xd7, 0xdb, 0xb5, 0xb9, 0x4d, 0x92, 0x95, 0x3e,
  0x6b, 0x9a, 0x9a, 0x3c, 0xa5, 0x10, 0x0d, 0xbe, 0x18, 0x96, 0x20, 0xbe,
  0x43, 0xef, 0x17, 0xbe, 0x00, 0x7a, 0x14, 0x3e, 0xd5, 0xd4, 0x7b, 0xbd,
  0x93, 0x81, 0xa6, 0xbb, 0x1e, 0xd7, 0x4e, 0xbe, 0xd2, 0x21, 0xa7, 0x3d,
  0x1b, 0x99, 0xd6, 0xbd, 0xda, 0x35, 0xa7, 0x3d, 0x1d, 0xa0, 0xbb, 0x3d,
  0x2b, 0x62, 0xbb, 0x3c, 0xc3, 0xe1, 0x04, 0x3e, 0xff, 0xbd, 0xec, 0xbd,
  0xf6, 0x37, 0x56, 0x3d, 0x11, 0x54, 0xc6, 0x3c, 0x8e, 0xd6, 0x05, 0xbd,
  0x56, 0xc4, 0x91, 0xbe, 0x70, 0xfe, 0x28, 0xbe, 0x6a, 0x80, 0x0d, 0xbe,
  0x9f, 0x4f, 0x2b, 0xbd, 0xbc, 0xb4, 0x50, 0x3e, 0x42, 0xef, 0x2d, 0xbe,
  0x3b, 0xc0, 0x46, 0x3e, 0xdf, 0x42, 0x66, 0xbd, 0xe7, 0x4f, 0x59, 0x3d,
  0x7c, 0xac, 0xbd, 0xbd, 0xbd, 0x88, 0x03, 0x3e, 0x32, 0xb2, 0x5f, 0xbe,
  0xe7, 0xfa, 0xff, 0x3c, 0x2d, 0xa1, 0x40, 0xbe, 0xf5, 0x02, 0x2e, 0xbe,
  0xfb, 0x61, 0x3f, 0xbe, 0xf8, 0xc4, 0x54, 0xbe, 0x4f, 0x13, 0x86, 0xbe,
  0xe3, 0xd4, 0xf8, 0x3d, 0x88, 0x02, 0x8f, 0xbc, 0x49, 0xca, 0x03, 0xbe,
  0xba, 0x36, 0x2a, 0xbf, 0xf6, 0xad, 0xce, 0xbd, 0x46, 0x49, 0x8b, 0xbe,
  0x82, 0xe2, 0x8f, 0xbd, 0xa9, 0xd8, 0x3a, 0xbe, 0x2e, 0x51, 0x95, 0xbd,
  0xc0, 0x8b, 0xa7, 0xbe, 0xe2, 0x69, 0x8b, 0x3c, 0x34, 0x9f, 0x56, 0xbe,
  0x13, 0x67, 0xf2, 0x3d, 0x2c, 0x55, 0xb5, 0xbb, 0xbd, 0xd9, 0xf7, 0x3c,
  0x0a, 0xb6, 0x62, 0x3d, 0xe4, 0x7d, 0xe9, 0x3d, 0x0f, 0x53, 0x34, 0xbd,
  0xc3, 0x81, 0xd5, 0x3d, 0x00, 0xaf, 0x02, 0xbe, 0xea, 0xca, 0xdd, 0x3b,
  0x71, 0x66, 0xb3, 0xbc, 0x96, 0xd2, 0x01, 0x3e, 0xf4, 0x92, 0x69, 0xbe,
  0xfb, 0x07, 0x5e, 0xbe, 0x3d, 0x73, 0xba, 0xbd, 0xa9, 0x1c, 0x44, 0xbd,
  0x28, 0xc8, 0x71, 0xbc, 0x4f, 0xac, 0x2e, 0xbe, 0x43, 0x94, 0x35, 0xbe,
  0x6a, 0xdd, 0x27, 0xbe, 0xf8, 0x72, 0x5d, 0x3e, 0xe0, 0xe0, 0xc4, 0xbd,
  0x17, 0x32, 0xed, 0x3b, 0x3c, 0x3b, 0x2d, 0xbe, 0x13, 0xfb, 0x72, 0xbe,
  0x2a, 0xfa, 0x3a, 0xbd, 0x65, 0x0d, 0x77, 0x3d, 0xed, 0xef, 0x3f, 0xbe,
  0x4e, 0x85, 0xf4, 0xbd, 0x3b, 0xc5, 0x93, 0x3c, 0xd7, 0x66, 0xb8, 0xbd,
  0x5e, 0x1f, 0xa3, 0x3d, 0x5a, 0xa4, 0x56, 0xbe, 0x2a, 0x65, 0x66, 0xbe,
  0xc3, 0x1f, 0x1e, 0xbd, 0xa0, 0xcd, 0x33, 0x3e, 0x30, 0xbf, 0x12, 0x3e,
  0xa3, 0x4f, 0xdc, 0x3c, 0x9a, 0x95, 0x16, 0x3e, 0x1e, 0xd7, 0x2b, 0xbe,
  0xdc, 0x0a, 0x0e, 0x3e, 0x69, 0xcd, 0x16, 0x3e, 0x75, 0x97, 0xe8, 0x3d,
  0x06, 0xbc, 0x57, 0xbe, 0x9b, 0xe7, 0x1b, 0x3e, 0x67, 0x44, 0x87, 0xbd,
  0x5a, 0x36, 0xfa, 0xbc, 0xe3, 0xae, 0xe6, 0xbd, 0x2b, 0xa2, 0xcf, 0xbd,
  0xff, 0xd1, 0x1e, 0x3d, 0x55, 0xd2, 0x28, 0xbe, 0x24, 0x34, 0xfe, 0xbc,
  0xdb, 0x2e, 0x37, 0xbe, 0x14, 0x89, 0x5b, 0xbe, 0x8f, 0x53, 0x00, 0xbd,
  0x38, 0x04, 0xc4, 0xbd, 0x9e, 0xbc, 0xb4, 0xba, 0x20, 0x9c, 0x2e, 0x3d,
  0x67, 0xeb, 0x69, 0xbe, 0x56, 0x67, 0x62, 0xbe, 0x4e, 0xee, 0x23, 0xbd,
  0xbe, 0x87, 0xec, 0x3d, 0x6c, 0xe2, 0x31, 0xbe, 0x71, 0xb3, 0x41, 0xbe,
  0xbb, 0x35, 0x36, 0xbe, 0xe4, 0xd2, 0xab, 0xbd, 0x1a, 0x17, 0x0c, 0xbd,
  0xcc, 0x7b, 0x34, 0x3d, 0x1d, 0x3e, 0x00, 0x3e, 0xcd, 0x36, 0x37, 0x3d,
  0x97, 0xbd, 0xcb, 0x3d, 0x72, 0xed, 0x39, 0xbe, 0xb2, 0x97, 0xc3, 0xbd,
  0x8a, 0x6f, 0x65, 0x3d, 0x52, 0x04, 0xbc, 0x3d, 0x40, 0x5b, 0x3c, 0xbe,
  0xd0, 0x29, 0x01, 0xbe, 0x59, 0xc9, 0x6a, 0x3d, 0x2f, 0xf1, 0x6d, 0xbe,
  0xcf, 0x6c, 0x87, 0x3d, 0x58, 0x4a, 0x7c, 0x3d, 0x71, 0x7a, 0x06, 0x3e,
  0xad, 0x64, 0xb9, 0xbc, 0x9d, 0xd1, 0x38, 0x3e, 0xa0, 0x44, 0x27, 0x3d,
  0xfe, 0x56, 0x4e, 0x3c, 0xbb, 0x6b, 0x6c, 0x3d, 0xda, 0x77, 0x61, 0xbe,
  0x55, 0x71, 0x22, 0x3e, 0x0c, 0x54, 0xe2, 0xbd, 0xe6, 0x98, 0x4d, 0xbd,
  0x85, 0xc2, 0xd8, 0xbd, 0x1a, 0xf5, 0xff, 0xff, 0x04, 0x00, 0x00, 0x00,
  0x80, 0x00, 0x00, 0x00, 0x00, 0x00, 0x00, 0x00, 0x66, 0xbc, 0x95, 0xbe,
  0xc7, 0x51, 0x25, 0xbe, 0x00, 0x00, 0x00, 0x00, 0x25, 0x58, 0x0e, 0xbe,
  0x36, 0xb4, 0x87, 0xbd, 0xda, 0xa5, 0x7f, 0xbd, 0x00, 0x00, 0x00, 0x00,
  0x5e, 0x67, 0x3a, 0xbd, 0xfe, 0xc0, 0x81, 0xbe, 0x25, 0x20, 0xa8, 0xbb,
  0x84, 0x7a, 0x80, 0xbd, 0x6e, 0xbc, 0x5d, 0xbe, 0xd0, 0xdf, 0x0e, 0xbe,
  0x25, 0xc4, 0x2d, 0xbc, 0x07, 0xcf, 0xaf, 0xbc, 0x71, 0xbc, 0x89, 0xbd,
  0x00, 0x00, 0x00, 0x00, 0x2c, 0xdc, 0xa5, 0xbd, 0xa6, 0xe8, 0x12, 0xbd,
  0x85, 0xbd, 0x05, 0xbd, 0x00, 0x00, 0x00, 0x00, 0x09, 0x73, 0x76, 0xbe,
  0x86, 0x94, 0xed, 0xbc, 0xbc, 0xaa, 0x49, 0xbc, 0x00, 0x00, 0x00, 0x00,
  0x56, 0x63, 0x8d, 0xbd, 0xc3, 0x0f, 0x0b, 0xbe, 0x9f, 0x09, 0xb0, 0xbd,
  0x62, 0x01, 0x63, 0xbe, 0x63, 0x1d, 0x9e, 0xbd, 0xfb, 0xdb, 0x23, 0xbd,
  0xa6, 0xf5, 0xff, 0xff, 0x04, 0x00, 0x00, 0x00, 0x40, 0x00, 0x00, 0x00,
  0xd8, 0xee, 0x0c, 0x3c, 0x42, 0x81, 0xc4, 0xbb, 0xdb, 0x65, 0x32, 0x3b,
  0xa7, 0x55, 0x83, 0xba, 0x3b, 0x64, 0x8c, 0xbb, 0x35, 0x82, 0xb9, 0xbe,
  0x65, 0xbc, 0x8d, 0xbc, 0x86, 0x48, 0xb5, 0xbb, 0xed, 0x14, 0x71, 0xbc,
  0xea, 0xcb, 0x12, 0xbc, 0x0d, 0x03, 0xb7, 0xbd, 0x89, 0x6e, 0x0e, 0xbd,
  0x77, 0xce, 0x18, 0xbd, 0xda, 0xdb, 0xc9, 0x3a, 0xe2, 0x77, 0x05, 0x3b,
  0x19, 0x6e, 0xb3, 0x3e, 0xf2, 0xf5, 0xff, 0xff, 0x04, 0x00, 0x00, 0x00,
  0x14, 0x00, 0x00, 0x00, 0xd3, 0x5e, 0x5c, 0xbe, 0xbb, 0x8d, 0x07, 0xbe,
  0x16, 0x77, 0x87, 0xbf, 0x6c, 0xf2, 0x81, 0x3f, 0x12, 0xb3, 0x05, 0x3e,
  0x12, 0xf6, 0xff, 0xff, 0x04, 0x00, 0x00, 0x00, 0x00, 0x08, 0x00, 0x00,
  0xc0, 0x1e, 0xf7, 0xbb, 0x7a, 0xfb, 0xc7, 0xbd, 0xa9, 0x3f, 0x3f, 0x3f,
  0xb0, 0xe4, 0xce, 0x3d, 0x00, 0x6e, 0xb1, 0xbd, 0xf1, 0x11, 0xfa, 0xbc,
  0x4a, 0x96, 0xa7, 0x3e, 0x8b, 0x40, 0xaf, 0xbe, 0x0a, 0x51, 0xaa, 0xbe,
  0x8d, 0x13, 0xc4, 0xbe, 0x94, 0x29, 0x9d, 0xbd, 0x1f, 0x7e, 0x54, 0xbe,
  0xec, 0x3a, 0xc4, 0x3d, 0x91, 0xa3, 0x6f, 0xbe, 0xd6, 0xb0, 0x8f, 0xbe,
  0xd7, 0x9d, 0x16, 0xbe, 0x02, 0xb2, 0x8b, 0x3e, 0xdf, 0xb4, 0x9a, 0x3e,
  0xb9, 0xd4, 0x7f, 0xbe, 0x14, 0x1c, 0x87, 0xbe, 0xf9, 0xc1, 0xbe, 0x3b,
  0xe6, 0x34, 0x3e, 0x3e, 0xea, 0x00, 0x4c, 0xbe, 0xc8, 0x2a, 0x67, 0x3d,
  0x86, 0xeb, 0xab, 0xbd, 0xb0, 0x64, 0xd8, 0xbc, 0x8e, 0x59, 0xad, 0xbe,
  0xd4, 0xf3, 0x7d, 0x3e, 0x29, 0x3f, 0x2a, 0xbd, 0xe3, 0xb6, 0x96, 0xbe,
  0x0e, 0xc2, 0xa4, 0x3d, 0xd1, 0xef, 0x06, 0x3e, 0xcf, 0xe6, 0x0a, 0xbe,
  0xaf, 0x3f, 0xbb, 0xbe, 0x5d, 0xed, 0xc7, 0x3e, 0xa0, 0xca, 0x1a, 0xbd,
  0x18, 0x66, 0x4a, 0xbd, 0x18, 0x0b, 0xc9, 0xbe, 0xdd, 0x43, 0xdc, 0x3d,
  0xa7, 0xbb, 0xb0, 0x3e, 0x12, 0x4a, 0x48, 0xbe, 0x51, 0x3c, 0xa7, 0xbe,
  0x6f, 0x58, 0x95, 0x3e, 0x11, 0xe4, 0x63, 0x3d, 0x6a, 0x01, 0x4e, 0xbe,
  0xd7, 0x90, 0x7d, 0xbe, 0x36, 0xc8, 0xa9, 0xbe, 0x97, 0x8d, 0x2a, 0x3e,
  0xd9, 0x28, 0xcb, 0x3d, 0x30, 0x2d, 0x91, 0xbc, 0x06, 0x54, 0x81, 0x3b,
  0xd3, 0x9f, 0x59, 0xbe, 0x59, 0x03, 0x11, 0x3d, 0x80, 0x8e, 0xa8, 0x3b,
  0xec, 0x22, 0x03, 0xbe, 0x7e, 0xf8, 0x25, 0x3f, 0x3b, 0x9e, 0xa8, 0x3e,
  0x26, 0x84, 0x44, 0x3e, 0xcd, 0x74, 0xca, 0x3d, 0x87, 0x86, 0xb8, 0x3e,
  0xc5, 0x10, 0xe2, 0x3e, 0xbe, 0xcd, 0x7e, 0xbe, 0xdd, 0xbc, 0xe5, 0x3e,
  0x53, 0x27, 0xd1, 0xbc, 0x26, 0xf3, 0x0d, 0x3e, 0x91, 0x90, 0xe5, 0x3e,
  0x9d, 0x01, 0xb9, 0x3e, 0xda, 0x68, 0x53, 0x3e, 0x22, 0x3a, 0xa2, 0x3e,
  0x1c, 0x41, 0x0c, 0x3e, 0x3f, 0x70, 0x14, 0x3f, 0x0f, 0x4c, 0xb0, 0x3e,
  0xff, 0x7f, 0xc2, 0xbe, 0x70, 0xbe, 0x9d, 0x3e, 0xe0, 0xc6, 0x35, 0x3d,
  0x0c, 0xd2, 0x13, 0xbe, 0xa9, 0x26, 0xc5, 0x3e, 0x69, 0x5b, 0xb4, 0x3e,
  0xa0, 0x4f, 0x83, 0xbe, 0xf7, 0x99, 0xa7, 0x3e, 0x9b, 0x2b, 0x4e, 0x3e,
  0x40, 0x95, 0x26, 0x3d, 0x66, 0x89, 0x53, 0xbe, 0x02, 0x81, 0x98, 0x3d,
  0x6a, 0x33, 0x9e, 0xbe, 0x95, 0xda, 0xb3, 0x3e, 0x48, 0xe0, 0x4e, 0xbe,
  0x3a, 0x5d, 0x38, 0x3e, 0xbc, 0xb0, 0x43, 0xbe, 0xc0, 0xdf, 0x50, 0xbc,
  0x0c, 0x0b, 0x28, 0x3f, 0x32, 0x72, 0x82, 0xbe, 0x3c, 0x44, 0x6f, 0xbe,
  0xa3, 0x7d, 0xfa, 0x3e, 0x6b, 0x29, 0xaa, 0x3d, 0x49, 0xbd, 0x0b, 0xbe,
  0x7c, 0xe3, 0xdb, 0xbd, 0xc1, 0xbd, 0x06, 0x3f, 0x21, 0x20, 0x2a, 0xbe,
  0x20, 0x7a, 0x8c, 0x3d, 0xdd, 0xb8, 0x21, 0x3f, 0x6f, 0xcf, 0x84, 0x3e,
  0x2a, 0xce, 0xd1, 0x3d, 0x72, 0xd7, 0x17, 0x3e, 0x29, 0x26, 0x7f, 0x3d,
  0x46, 0x9b, 0xc7, 0x3e, 0x76, 0x75, 0x6a, 0xbd, 0x52, 0x8d, 0x8a, 0xbc,
  0x8f, 0xaf, 0xe4, 0x3e, 0xcf, 0x88, 0xe0, 0x3e, 0x8a, 0x7c, 0xd4, 0xbd,
  0xe4, 0x34, 0x0d, 0x3e, 0xab, 0x07, 0xa4, 0xbe, 0x00, 0xbf, 0xd3, 0xba,
  0x43, 0xf0, 0x84, 0x3e, 0x55, 0x85, 0x6c, 0xbe, 0x27, 0xb3, 0x8f, 0x3e,
  0xce, 0x26, 0x41, 0x3e, 0xe9, 0xb0, 0x14, 0x3f, 0x5e, 0x93, 0xdd, 0xbe,
  0xd6, 0xd0, 0x78, 0x3e, 0x50, 0xce, 0x62, 0x3d, 0x6a, 0x42, 0x0c, 0xbd,
  0xc2, 0xc4, 0x99, 0x3d, 0xdf, 0x7d, 0xbf, 0x3d, 0x66, 0x9c, 0x56, 0x3e,
  0x86, 0xe5, 0x20, 0x3e, 0xa0, 0x9f, 0x86, 0x3e, 0x16, 0x90, 0x11, 0xbe,
  0x50, 0x2f, 0xc8, 0x3e, 0xe3, 0x4d, 0x76, 0x3e, 0x43, 0x10, 0xab, 0x3e,
  0x2a, 0x16, 0xde, 0x3e, 0xa9, 0x7b, 0xf0, 0x3e, 0xf0, 0x0a, 0x03, 0x3e,
  0x00, 0x7b, 0x19, 0x3d, 0x34, 0x4b, 0x99, 0x3e, 0x45, 0xc4, 0xe9, 0x3e,
  0x38, 0x46, 0x03, 0xbd, 0x9a, 0xaf, 0xf9, 0xbd, 0x3f, 0x7f, 0xd2, 0x3e,
  0x68, 0x6e, 0xe3, 0x3e, 0x36, 0x1f, 0x98, 0x3e, 0x6a, 0xa9, 0xf0, 0x3d,
  0x84, 0xd9, 0x9a, 0x3e, 0x0e, 0x28, 0xa1, 0xbe, 0x29, 0xa0, 0x25, 0xbe,
  0x3e, 0x23, 0x89, 0x3d, 0xfe, 0xb3, 0xd7, 0x3d, 0xe0, 0x3e, 0x3d, 0x3d,
  0xd1, 0xf7, 0x50, 0x3e, 0x16, 0xe0, 0x53, 0xbe, 0xc0, 0xab, 0xa3, 0xbe,
  0x90, 0xe4, 0x8e, 0xbc, 0x8d, 0x3d, 0xcd, 0x3d, 0xf4, 0xf6, 0xfc, 0xbb,
  0xcb, 0xae, 0x4c, 0xbe, 0x31, 0xa8, 0xbd, 0x3e, 0x66, 0xa6, 0x0f, 0xbc,
  0x02, 0xd1, 0x9b, 0xbe, 0x38, 0xe2, 0xe1, 0xbd, 0xec, 0xac, 0xa0, 0xbe,
  0x56, 0x49, 0x49, 0xbe, 0x2f, 0xa5, 0x96, 0x3e, 0x93, 0x45, 0xa9, 0xbe,
  0x04, 0x6f, 0x81, 0xbe, 0x4e, 0xfb, 0x88, 0xbd, 0x9f, 0x55, 0x96, 0x3e,
  0xfd, 0x11, 0x85, 0x3c, 0x65, 0x1b, 0x28, 0xbd, 0x02, 0xb5, 0x25, 0x3e,
  0xfd, 0xbe, 0xbf, 0xbd, 0x8b, 0x46, 0x50, 0xbe, 0xb8, 0x5f, 0x82, 0xbe,
  0x45, 0x63, 0xa5, 0x3e, 0x55, 0x2f, 0x9c, 0x3d, 0xaf, 0x93, 0x06, 0xbe,
  0xd3, 0x6b, 0x97, 0x3e, 0xd8, 0xbf, 0x08, 0xbd, 0x08, 0xfd, 0x15, 0xbe,
  0xc9, 0x9c, 0x8d, 0x3e, 0x44, 0xfd, 0xde, 0x3d, 0x1a, 0x91, 0xd6, 0x3d,
  0xad, 0xe4, 0xa3, 0xbe, 0xd4, 0xd4, 0x9e, 0xbb, 0x2f, 0xf8, 0x99, 0x3e,
  0xdf, 0xea, 0x4e, 0x3d, 0x8a, 0xee, 0x33, 0xbe, 0x8a, 0x8e, 0x04, 0xbe,
  0xbc, 0x89, 0x73, 0xbe, 0x0a, 0x23, 0xac, 0xbe, 0x78, 0x71, 0x93, 0x3e,
  0x52, 0xd5, 0xe9, 0xbd, 0x48, 0xdb, 0x23, 0xbe, 0x14, 0x80, 0xc5, 0xbb,
  0x94, 0x46, 0xcf, 0xbd, 0xa8, 0xff, 0xec, 0xbd, 0xdd, 0x45, 0x85, 0x3e,
  0x9f, 0xdb, 0x6b, 0xbe, 0x69, 0xfa, 0x83, 0x3e, 0x83, 0x10, 0x03, 0xbe,
  0x14, 0x7c, 0xfd, 0x3c, 0x2c, 0x07, 0x2e, 0xbe, 0x10, 0xe9, 0x88, 0xbc,
  0xe5, 0xbb, 0x64, 0xbe, 0xd3, 0x5c, 0x02, 0x3e, 0xab, 0xfe, 0x71, 0xbe,
  0xee, 0x82, 0x32, 0xbe, 0xa9, 0xf3, 0x85, 0x3e, 0x85, 0x02, 0x20, 0xbe,
  0xb4, 0x9b, 0x6c, 0xbb, 0x92, 0x46, 0x83, 0xbd, 0x64, 0x98, 0x86, 0x3e,
  0xe0, 0x16, 0xd3, 0xbc, 0xbd, 0x85, 0x01, 0x3e, 0xf9, 0xd2, 0x91, 0xbe,
  0xa3, 0xe2, 0x06, 0xbc, 0x18, 0x4a, 0xa4, 0xbe, 0xdc, 0x32, 0x58, 0xbe,
  0x84, 0xd2, 0xa3, 0xbc, 0x21, 0x3c, 0xc7, 0xbd, 0xdb, 0x12, 0xd0, 0x3d,
  0xa3, 0xde, 0x74, 0xbe, 0x5b, 0x6a, 0x83, 0xbe, 0xd6, 0x05, 0x6b, 0x3e,
  0xb4, 0xee, 0x04, 0x3f, 0xa1, 0x78, 0x0a, 0xbd, 0x4c, 0x3b, 0xb3, 0xbe,
  0xb7, 0xf9, 0x16, 0x3f, 0x3c, 0xb4, 0x0d, 0x3f, 0x4a, 0x33, 0x41, 0x3e,
  0x80, 0x75, 0x1e, 0xbe, 0xb2, 0xc2, 0xb6, 0xbd, 0xe8, 0xb5, 0x8a, 0x3d,
  0xe3, 0xb7, 0x1a, 0x3e, 0x58, 0xb1, 0xae, 0x3e, 0xac, 0x69, 0x1b, 0x3f,
  0x52, 0xd5, 0x23, 0x3f, 0x75, 0x0f, 0x3b, 0x3e, 0xaf, 0xd3, 0x1d, 0xbd,
  0x50, 0x53, 0x34, 0x3e, 0xf8, 0x6d, 0xfd, 0x3d, 0x20, 0x38, 0x6d, 0x3e,
  0xe8, 0x7e, 0xf9, 0x3d, 0x2d, 0xba, 0x82, 0xbe, 0x66, 0xbc, 0x58, 0x3e,
  0xae, 0x32, 0xec, 0x3e, 0x31, 0x09, 0x92, 0x3e, 0xb6, 0x34, 0xa8, 0x3e,
  0xc6, 0x1c, 0x2d, 0x3e, 0x52, 0x03, 0x4f, 0x3e, 0xa0, 0x7a, 0xc6, 0x3d,
  0x2e, 0x9d, 0x91, 0x3d, 0x33, 0xa5, 0xe1, 0x3e, 0xcf, 0xcc, 0xd4, 0x3d,
  0xb2, 0x38, 0x85, 0x3e, 0xd6, 0x61, 0x22, 0x3e, 0xe5, 0xef, 0x1c, 0x3c,
  0x2a, 0xbb, 0x96, 0xbd, 0x7a, 0x9d, 0x3a, 0x3e, 0xfe, 0x91, 0x5f, 0x3e,
  0x50, 0x1e, 0x7a, 0x3e, 0x89, 0x39, 0x27, 0xbd, 0x24, 0xcb, 0xd3, 0xbd,
  0xb2, 0x9f, 0x6a, 0x3e, 0x1c, 0xa4, 0x16, 0x3f, 0x3a, 0xe6, 0x3d, 0x3e,
  0x19, 0xbf, 0xd0, 0x3e, 0xcf, 0x22, 0x4d, 0xbe, 0xc8, 0x82, 0xa1, 0x3e,
  0x47, 0x56, 0x71, 0x3e, 0x0d, 0x8e, 0xc3, 0x3d, 0x90, 0xfc, 0xb1, 0xbe,
  0xba, 0x73, 0xb4, 0xbe, 0xc0, 0x5c, 0x4a, 0xbe, 0x71, 0x5f, 0x5f, 0x3e,
  0x17, 0x9c, 0xae, 0xbe, 0x48, 0xf1, 0x76, 0xbd, 0x20, 0xff, 0x40, 0x3f,
  0x17, 0x48, 0x35, 0x3d, 0x5f, 0x11, 0x6a, 0x3e, 0x0d, 0x7a, 0x87, 0x3e,
  0x4a, 0xeb, 0x2d, 0xbd, 0x21, 0x87, 0x82, 0xbd, 0x5e, 0x3f, 0x27, 0x3f,
  0x9b, 0x30, 0x0f, 0x3e, 0x4c, 0x99, 0x37, 0x3d, 0x62, 0xb9, 0x28, 0xbe,
  0xa4, 0x25, 0x2f, 0xbe, 0x5d, 0x5a, 0x9d, 0xbe, 0xfc, 0xfc, 0x60, 0x3d,
  0xb0, 0x41, 0x00, 0x3e, 0x29, 0xed, 0x81, 0xbe, 0xfc, 0x6f, 0x72, 0xbe,
  0x3e, 0x46, 0xcb, 0x3d, 0xbe, 0xcb, 0x6a, 0x3e, 0xdd, 0x5a, 0x07, 0xbd,
  0xda, 0xfe, 0x16, 0xbe, 0x21, 0xc1, 0xaa, 0x3e, 0x6f, 0x79, 0x24, 0x3f,
  0x07, 0x38, 0x7a, 0xbe, 0x23, 0x69, 0x64, 0xbe, 0x34, 0xfd, 0xb2, 0xbe,
  0x5c, 0xd8, 0x9f, 0x3e, 0x28, 0xa6, 0x9d, 0xbe, 0x9c, 0xc9, 0xdc, 0xbd,
  0xf4, 0xaa, 0x9c, 0xbe, 0x25, 0xec, 0x15, 0xbe, 0x10, 0x8f, 0x9d, 0xbc,
  0xbe, 0xf8, 0x18, 0x3e, 0x5c, 0x90, 0x21, 0xbe, 0x0c, 0x05, 0x1f, 0x3f,
  0xde, 0x3f, 0x1b, 0x3c, 0x02, 0x0e, 0x1b, 0x3e, 0x94, 0xaf, 0x17, 0x3e,
  0x57, 0xf2, 0xca, 0x3e, 0x60, 0x5b, 0x1c, 0x3f, 0x26, 0xf1, 0x3b, 0xbe,
  0x58, 0x17, 0x94, 0x3e, 0x9e, 0xb7, 0x73, 0xbe, 0xab, 0x7b, 0xae, 0x3e,
  0x07, 0xeb, 0x51, 0x3e, 0xf6, 0x7e, 0x19, 0xbc, 0xe1, 0x8f, 0x85, 0x3e,
  0x0a, 0xec, 0xf7, 0x3e, 0x03, 0x3f, 0xac, 0xbd, 0x9f, 0x9f, 0x91, 0xbc,
  0x78, 0x8f, 0xb0, 0xbe, 0x24, 0xc4, 0x90, 0x3e, 0x65, 0x22, 0xca, 0x3e,
  0xed, 0xe3, 0x9a, 0x3e, 0xa8, 0x01, 0x4a, 0xbe, 0x11, 0x6c, 0x99, 0xbd,
  0xdc, 0xa8, 0x95, 0x3e, 0xe2, 0x8a, 0x17, 0xba, 0x57, 0x38, 0x83, 0xbe,
  0xb0, 0x31, 0x41, 0xbe, 0xd7, 0x76, 0xb2, 0x3e, 0xa8, 0x7b, 0x0e, 0xbb,
  0x0b, 0xfd, 0xa5, 0xbd, 0x77, 0xd8, 0x5f, 0xbe, 0xea, 0xff, 0x2e, 0x3e,
  0x60, 0xbc, 0x05, 0x3f, 0x84, 0xf7, 0xc8, 0xbe, 0x14, 0xf7, 0xa5, 0xbd,
  0x80, 0x6d, 0xed, 0x3c, 0x24, 0x23, 0x0e, 0xbd, 0x93, 0x74, 0x9f, 0x3e,
  0x8f, 0x20, 0xda, 0xbc, 0xd0, 0x35, 0x28, 0x3e, 0x4b, 0xaf, 0xab, 0xba,
  0x55, 0x76, 0xab, 0xbe, 0x34, 0x9e, 0xba, 0x3d, 0xff, 0xe2, 0x40, 0xbe,
  0x60, 0xfe, 0x48, 0xbc, 0x77, 0xb9, 0x0a, 0xbe, 0x48, 0xa5, 0x51, 0xbe,
  0x74, 0x52, 0xef, 0xbe, 0x37, 0x9b, 0x8e, 0x3e, 0x44, 0xc5, 0xf8, 0x3d,
  0xe7, 0x73, 0x9b, 0xbc, 0xda, 0xf3, 0x2b, 0xbe, 0x48, 0x63, 0x18, 0xbe,
  0x24, 0x8a, 0xbc, 0x3e, 0x46, 0x27, 0xe1, 0xbd, 0x61, 0x06, 0xd7, 0xbd,
  0xb1, 0xe0, 0x90, 0xbe, 0x16, 0x2a, 0xa2, 0xbc, 0x95, 0xdf, 0x80, 0x3d,
  0x01, 0x67, 0xaf, 0x3e, 0x01, 0x41, 0xfa, 0x3d, 0x25, 0x5a, 0x62, 0xbe,
  0xa3, 0xe1, 0x80, 0x3e, 0x49, 0x30, 0xa7, 0x3e, 0xc6, 0xd3, 0xa4, 0xbe,
  0xc3, 0x2a, 0xfc, 0x3e, 0x96, 0x4b, 0x61, 0x3e, 0xad, 0x62, 0xb0, 0x3e,
  0x05, 0x48, 0x75, 0x3e, 0x0e, 0xea, 0x4e, 0xbe, 0x94, 0x88, 0x47, 0xbe,
  0x97, 0x2d, 0x95, 0xbb, 0xb7, 0x47, 0x6e, 0x3e, 0x4a, 0x05, 0x54, 0xbe,
  0x5b, 0xd8, 0x2c, 0xbe, 0x54, 0x33, 0x07, 0x3f, 0x63, 0x80, 0x88, 0x3d,
  0x10, 0x05, 0x9c, 0xbd, 0xf7, 0x69, 0xbf, 0x3e, 0xfa, 0x56, 0x33, 0x3f,
  0xdc, 0xf4, 0x0e, 0x3f, 0xe7, 0x4e, 0xa1, 0xbe, 0xaf, 0xac, 0x1c, 0xbc,
  0xb0, 0x25, 0x86, 0x3e, 0xb0, 0x5c, 0x73, 0x3d, 0x51, 0x4e, 0x11, 0xbe,
  0xd8, 0xe3, 0x13, 0x3f, 0x2f, 0x02, 0x16, 0x3f, 0x0e, 0xd0, 0xa7, 0xbd,
  0xb2, 0xfe, 0x57, 0xbe, 0xe9, 0x17, 0x86, 0x3e, 0x96, 0xce, 0x5f, 0x3e,
  0xbb, 0xa0, 0x10, 0x3e, 0xa3, 0x6a, 0x19, 0xbe, 0xe6, 0xf1, 0xdc, 0x3d,
  0x7c, 0x8a, 0xb1, 0x3d, 0x7d, 0xe3, 0x19, 0x3e, 0x89, 0xfe, 0x6a, 0xbd,
  0x8a, 0x27, 0x9d, 0x3c, 0x40, 0xac, 0x49, 0x3d, 0x22, 0xf9, 0x0f, 0x3f,
  0x43, 0x83, 0x02, 0xbc, 0x6d, 0xc9, 0x5b, 0xbe, 0xe4, 0x89, 0x17, 0x3f,
  0x44, 0xf3, 0xd2, 0xbb, 0x83, 0x73, 0xa3, 0xbc, 0xd1, 0x6a, 0x46, 0xbe,
  0xda, 0x56, 0xdf, 0xbd, 0x32, 0xb1, 0x48, 0xbe, 0x92, 0x5f, 0x1f, 0x3e,
  0x5a, 0x6f, 0x44, 0xbe, 0x05, 0x92, 0x1d, 0xbe, 0x39, 0xf5, 0x29, 0xbd,
  0x50, 0x57, 0xa1, 0xbe, 0x2e, 0xb5, 0x09, 0xbe, 0x47, 0x75, 0x84, 0xbd,
  0x9c, 0xaf, 0xc9, 0xbd, 0x22, 0xad, 0x1f, 0x3f, 0x32, 0xad, 0x62, 0xbd,
  0x34, 0xe7, 0x9d, 0xbd, 0x57, 0xc3, 0x99, 0xbe, 0x01, 0x76, 0x8a, 0x3e,
  0xad, 0xac, 0x9e, 0x3e, 0x71, 0x7a, 0xb2, 0x3e, 0x74, 0xef, 0x77, 0xbe,
  0x9a, 0xa6, 0x21, 0xbe, 0xf1, 0x2d, 0x7b, 0x3e, 0x0c, 0xf5, 0xa0, 0xbe,
  0x97, 0x0d, 0x4a, 0xbd, 0x16, 0x3c, 0xb1, 0x3e, 0x9e, 0x6e, 0xac, 0xbe,
  0x06, 0x4d, 0x7d, 0x3e, 0x93, 0x6a, 0x5e, 0xbe, 0xaa, 0x68, 0xd0, 0xbd,
  0x54, 0xcc, 0x22, 0x3f, 0x59, 0x7d, 0x2a, 0xbe, 0xc5, 0x2c, 0x76, 0x3e,
  0x31, 0xa7, 0xf8, 0x3d, 0x97, 0x6c, 0x49, 0xbe, 0xf5, 0x69, 0x3d, 0xbe,
  0xad, 0x9f, 0x8a, 0xbe, 0xd0, 0xfa, 0x99, 0xbd, 0x4d, 0xd2, 0x86, 0xbe,
  0x1b, 0x26, 0x72, 0xbe, 0xaa, 0x41, 0x0a, 0xbe, 0xc8, 0x8a, 0x6c, 0x3d,
  0xf5, 0x2d, 0x64, 0xbe, 0x4b, 0x53, 0x51, 0x3e, 0xe0, 0xef, 0x05, 0xbd,
  0xa1, 0x34, 0xe0, 0x3e, 0x3a, 0xb9, 0x83, 0xbe, 0xc7, 0xcf, 0xee, 0xbd,
  0x53, 0x16, 0xd9, 0xbd, 0x8e, 0xab, 0x51, 0xbe, 0x09, 0x93, 0x94, 0x3e,
  0x90, 0x71, 0xee, 0x3d, 0xfb, 0xaf, 0x81, 0xbe, 0x33, 0x7f, 0x22, 0xbe,
  0xeb, 0xf8, 0x3b, 0xbe, 0xe6, 0xe6, 0x4e, 0x3e, 0xc7, 0xa1, 0xaa, 0x3a,
  0xff, 0x83, 0xe5, 0x3d, 0x60, 0xf9, 0x0d, 0xbe, 0x2a, 0x14, 0xdd, 0xbd,
  0xe1, 0x4f, 0x2d, 0xbe, 0x51, 0x42, 0xab, 0x3e, 0x28, 0x4d, 0x13, 0x3f,
  0xa3, 0x2e, 0x74, 0xbc, 0x97, 0xa2, 0x1c, 0x3e, 0x4a, 0x76, 0x95, 0xbe,
  0x18, 0xee, 0xa6, 0x3d, 0x80, 0x5b, 0xbc, 0xbe, 0x4f, 0x52, 0x96, 0xbd,
  0xe8, 0x60, 0x06, 0xbd, 0x89, 0xba, 0x6b, 0xbe, 0xd0, 0xc2, 0x42, 0xbd,
  0x3b, 0xd8, 0x7c, 0xbe, 0xfd, 0x6a, 0x9a, 0x3e, 0x14, 0x8a, 0xcc, 0x3d,
  0x00, 0x1a, 0x8e, 0xbe, 0xfa, 0x23, 0x84, 0xbe, 0x2e, 0x62, 0x06, 0x3f,
  0x61, 0x77, 0x8a, 0xbe, 0xa0, 0x9a, 0x69, 0xbe, 0xc8, 0x1f, 0xa6, 0x3e,
  0xf0, 0x09, 0x44, 0x3e, 0x21, 0x82, 0xdc, 0xbd, 0x0d, 0x2f, 0x8c, 0xbe,
  0xd1, 0xfd, 0x8a, 0xbd, 0xd9, 0x3c, 0x07, 0xbe, 0x77, 0x09, 0xb0, 0xbe,
  0xfb, 0x03, 0x99, 0x3e, 0xf2, 0x23, 0xd9, 0xbd, 0xe4, 0x72, 0x32, 0x3d,
  0xcd, 0x05, 0x48, 0xbe, 0xea, 0x38, 0x97, 0xbe, 0x7f, 0x21, 0x87, 0xbe,
  0xc3, 0xdd, 0xd0, 0x3e, 0x7f, 0x7e, 0x17, 0x3f, 0x73, 0xb6, 0xf4, 0xbe,
  0x72, 0x14, 0x25, 0xbe, 0x92, 0x15, 0xc5, 0xbe, 0x1e, 0xfe, 0xff, 0xff,
  0x04, 0x00, 0x00, 0x00, 0x40, 0x01, 0x00, 0x00, 0x0c, 0x5b, 0xd1, 0xbe,
  0x15, 0xb3, 0xc4, 0x3e, 0x75, 0x01, 0x10, 0xbf, 0x82, 0x5a, 0xa8, 0x3d,
  0xaa, 0xdd, 0x34, 0xbf, 0xe2, 0xd4, 0xa1, 0xbe, 0x02, 0xa8, 0x0a, 0xbf,
  0xe7, 0x36, 0xd6, 0x3b, 0x81, 0x7f, 0x67, 0x3e, 0xa0, 0x2d, 0x10, 0x3f,
  0x9b, 0xb8, 0x80, 0xbe, 0x0b, 0xc7, 0x84, 0x3e, 0x25, 0x56, 0xde, 0xbe,
  0xd4, 0xdd, 0x53, 0x3f, 0xa2, 0xc5, 0x58, 0x3f, 0x81, 0xf5, 0x08, 0x3f,
  0x71, 0x45, 0xd5, 0xbd, 0x37, 0x7a, 0xc9, 0x3e, 0xd4, 0xf7, 0x56, 0x3e,
  0x7d, 0x14, 0x9a, 0x3e, 0xa8, 0x6a, 0xd4, 0x3e, 0x57, 0xee, 0xb7, 0xbe,
  0x9c, 0x1e, 0x3d, 0xbd, 0x17, 0x6a, 0x07, 0x3e, 0x5a, 0x7c, 0x09, 0xbf,
  0x5e, 0x93, 0x79, 0x3e, 0x7c, 0xd3, 0x26, 0xbf, 0x10, 0x88, 0x01, 0x3f,
  0x12, 0x69, 0x12, 0x3f, 0x5e, 0x2f, 0x1c, 0x3e, 0x92, 0xac, 0x7c, 0xbe,
  0x49, 0xb7, 0x73, 0xbe, 0x27, 0xc7, 0xc4, 0xbe, 0xfa, 0x49, 0x2a, 0xbe,
  0x58, 0xa6, 0x6b, 0x3e, 0x96, 0xea, 0x3a, 0x3f, 0x59, 0x60, 0x2c, 0x3f,
  0x49, 0x0c, 0xa0, 0xbe, 0x9e, 0x02, 0xaa, 0x3d, 0x54, 0xe2, 0xc6, 0x3e,
  0x09, 0xc2, 0x94, 0x3e, 0x92, 0xde, 0x1e, 0xbf, 0x00, 0xc8, 0x50, 0x3f,
  0x30, 0x91, 0x28, 0xbc, 0xae, 0xbd, 0x23, 0x3f, 0xee, 0x45, 0x23, 0xbf,
  0x9b, 0x30, 0x8e, 0x3d, 0xb9, 0x8d, 0x61, 0xbf, 0xec, 0xa2, 0xac, 0xbf,
  0x98, 0x6e, 0x9a, 0xbf, 0x80, 0x22, 0x85, 0xbf, 0xe3, 0x47, 0x36, 0xbf,
  0x1e, 0x75, 0x3d, 0xbf, 0x28, 0x6d, 0x68, 0x3e, 0xd2, 0x4b, 0x10, 0xbf,
  0x74, 0xac, 0x4e, 0xbf, 0x4f, 0xd9, 0xad, 0xbf, 0x2b, 0x32, 0xa7, 0xbf,
  0x7a, 0xa8, 0xae, 0xbf, 0x31, 0x91, 0x84, 0xbf, 0x97, 0xae, 0xd4, 0xbe,
  0xcd, 0x65, 0x97, 0xbf, 0x82, 0xb5, 0x5d, 0xbf, 0x7f, 0x7f, 0x89, 0x3e,
  0x9c, 0x47, 0x8e, 0xbc, 0x66, 0x2c, 0xd6, 0x3e, 0x91, 0xd8, 0x2d, 0xbe,
  0x1d, 0x88, 0x86, 0xbe, 0x3e, 0x47, 0xc4, 0x3d, 0x80, 0xf5, 0xac, 0x3e,
  0x8b, 0xf2, 0x7b, 0xbe, 0xd9, 0xf1, 0x71, 0xbf, 0x60, 0xad, 0x79, 0xbe,
  0xc0, 0x8a, 0x4f, 0x3e, 0x7b, 0xd7, 0x98, 0xbe, 0x78, 0x70, 0x42, 0xbf,
  0xa8, 0xc2, 0xad, 0xbe, 0x0f, 0xfa, 0x26, 0x3e, 0x7a, 0x08, 0x55, 0x3e,
  0x6e, 0x91, 0xb5, 0x3e, 0xa4, 0xfa, 0xff, 0xff, 0xa8, 0xfa, 0xff, 0xff,
  0x0f, 0x00, 0x00, 0x00, 0x4d, 0x4c, 0x49, 0x52, 0x20, 0x43, 0x6f, 0x6e,
  0x76, 0x65, 0x72, 0x74, 0x65, 0x64, 0x2e, 0x00, 0x01, 0x00, 0x00, 0x00,
  0x14, 0x00, 0x00, 0x00, 0x00, 0x00, 0x0e, 0x00, 0x18, 0x00, 0x14, 0x00,
  0x10, 0x00, 0x0c, 0x00, 0x08, 0x00, 0x04, 0x00, 0x0e, 0x00, 0x00, 0x00,
  0x14, 0x00, 0x00, 0x00, 0x1c, 0x00, 0x00, 0x00, 0x34, 0x01, 0x00, 0x00,
  0x38, 0x01, 0x00, 0x00, 0x3c, 0x01, 0x00, 0x00, 0x04, 0x00, 0x00, 0x00,
  0x6d, 0x61, 0x69, 0x6e, 0x00, 0x00, 0x00, 0x00, 0x04, 0x00, 0x00, 0x00,
  0xdc, 0x00, 0x00, 0x00, 0x94, 0x00, 0x00, 0x00, 0x50, 0x00, 0x00, 0x00,
  0x14, 0x00, 0x00, 0x00, 0x00, 0x00, 0x0e, 0x00, 0x1a, 0x00, 0x14, 0x00,
  0x10, 0x00, 0x0c, 0x00, 0x0b, 0x00, 0x04, 0x00, 0x0e, 0x00, 0x00, 0x00,
  0x1c, 0x00, 0x00, 0x00, 0x00, 0x00, 0x00, 0x09, 0x1c, 0x00, 0x00, 0x00,
  0x20, 0x00, 0x00, 0x00, 0x01, 0x00, 0x00, 0x00, 0x00, 0x00, 0x06, 0x00,
  0x08, 0x00, 0x04, 0x00, 0x06, 0x00, 0x00, 0x00, 0x00, 0x00, 0x80, 0x3f,
  0x01, 0x00, 0x00, 0x00, 0x0a, 0x00, 0x00, 0x00, 0x01, 0x00, 0x00, 0x00,
  0x09, 0x00, 0x00, 0x00, 0xce, 0xff, 0xff, 0xff, 0x10, 0x00, 0x00, 0x00,
  0x00, 0x00, 0x00, 0x08, 0x0c, 0x00, 0x00, 0x00, 0x10, 0x00, 0x00, 0x00,
  0x6c, 0xfb, 0xff, 0xff, 0x01, 0x00, 0x00, 0x00, 0x09, 0x00, 0x00, 0x00,
  0x03, 0x00, 0x00, 0x00, 0x08, 0x00, 0x00, 0x00, 0x01, 0x00, 0x00, 0x00,
  0x03, 0x00, 0x00, 0x00, 0x00, 0x00, 0x0e, 0x00, 0x14, 0x00, 0x00, 0x00,
  0x10, 0x00, 0x0c, 0x00, 0x0b, 0x00, 0x04, 0x00, 0x0e, 0x00, 0x00, 0x00,
  0x10, 0x00, 0x00, 0x00, 0x00, 0x00, 0x00, 0x08, 0x10, 0x00, 0x00, 0x00,
  0x14, 0x00, 0x00, 0x00, 0xba, 0xff, 0xff, 0xff, 0x00, 0x00, 0x00, 0x01,
  0x01, 0x00, 0x00, 0x00, 0x08, 0x00, 0x00, 0x00, 0x03, 0x00, 0x00, 0x00,
  0x07, 0x00, 0x00, 0x00, 0x02, 0x00, 0x00, 0x00, 0x04, 0x00, 0x00, 0x00,
  0x00, 0x00, 0x0e, 0x00, 0x16, 0x00, 0x00, 0x00, 0x10, 0x00, 0x0c, 0x00,
  0x0b, 0x00, 0x04, 0x00, 0x0e, 0x00, 0x00, 0x00, 0x18, 0x00, 0x00, 0x00,
  0x00, 0x00, 0x00, 0x08, 0x18, 0x00, 0x00, 0x00, 0x1c, 0x00, 0x00, 0x00,
  0x00, 0x00, 0x06, 0x00, 0x08, 0x00, 0x07, 0x00, 0x06, 0x00, 0x00, 0x00,
  0x00, 0x00, 0x00, 0x01, 0x01, 0x00, 0x00, 0x00, 0x07, 0x00, 0x00, 0x00,
  0x03, 0x00, 0x00, 0x00, 0x00, 0x00, 0x00, 0x00, 0x06, 0x00, 0x00, 0x00,
  0x05, 0x00, 0x00, 0x00, 0x01, 0x00, 0x00, 0x00, 0x0a, 0x00, 0x00, 0x00,
  0x01, 0x00, 0x00, 0x00, 0x00, 0x00, 0x00, 0x00, 0x0b, 0x00, 0x00, 0x00,
  0xbc, 0x03, 0x00, 0x00, 0x64, 0x03, 0x00, 0x00, 0x24, 0x03, 0x00, 0x00,
  0xe8, 0x02, 0x00, 0x00, 0xac, 0x02, 0x00, 0x00, 0x4c, 0x02, 0x00, 0x00,
  0xf8, 0x01, 0x00, 0x00, 0x60, 0x01, 0x00, 0x00, 0xc8, 0x00, 0x00, 0x00,
  0x50, 0x00, 0x00, 0x00, 0x04, 0x00, 0x00, 0x00, 0x86, 0xfc, 0xff, 0xff,
  0x00, 0x00, 0x00, 0x01, 0x10, 0x00, 0x00, 0x00, 0x10, 0x00, 0x00, 0x00,
  0x0b, 0x00, 0x00, 0x00, 0x28, 0x00, 0x00, 0x00, 0x70, 0xfc, 0xff, 0xff,
  0x1b, 0x00, 0x00, 0x00, 0x53, 0x74, 0x61, 0x74, 0x65, 0x66, 0x75, 0x6c,
  0x50, 0x61, 0x72, 0x74, 0x69, 0x74, 0x69, 0x6f, 0x6e, 0x65, 0x64, 0x43,
  0x61, 0x6c, 0x6c, 0x5f, 0x31, 0x3a, 0x30, 0x00, 0x02, 0x00, 0x00, 0x00,
  0x08, 0x00, 0x00, 0x00, 0x05, 0x00, 0x00, 0x00, 0xce, 0xfc, 0xff, 0xff,
  0x00, 0x00, 0x00, 0x01, 0x10, 0x00, 0x00, 0x00, 0x10, 0x00, 0x00, 0x00,
  0x0a, 0x00, 0x00, 0x00, 0x54, 0x00, 0x00, 0x00, 0xb8, 0xfc, 0xff, 0xff,
  0x44, 0x00, 0x00, 0x00, 0x73, 0x65, 0x71, 0x75, 0x65, 0x6e, 0x74, 0x69,
  0x61, 0x6c, 0x5f, 0x32, 0x30, 0x5f, 0x31, 0x2f, 0x64, 0x65, 0x6e, 0x73,
  0x65, 0x5f, 0x36, 0x32, 0x5f, 0x31, 0x2f, 0x4d, 0x61, 0x74, 0x4d, 0x75,
  0x6c, 0x3b, 0x73, 0x65, 0x71, 0x75, 0x65, 0x6e, 0x74, 0x69, 0x61, 0x6c,
  0x5f, 0x32, 0x30, 0x5f, 0x31, 0x2f, 0x64, 0x65, 0x6e, 0x73, 0x65, 0x5f,
  0x36, 0x32, 0x5f, 0x31, 0x2f, 0x42, 0x69, 0x61, 0x73, 0x41, 0x64, 0x64,
  0x00, 0x00, 0x00, 0x00, 0x02, 0x00, 0x00, 0x00, 0x08, 0x00, 0x00, 0x00,
  0x05, 0x00, 0x00, 0x00, 0x42, 0xfd, 0xff, 0xff, 0x00, 0x00, 0x00, 0x01,
  0x10, 0x00, 0x00, 0x00, 0x10, 0x00, 0x00, 0x00, 0x09, 0x00, 0x00, 0x00,
  0x74, 0x00, 0x00, 0x00, 0x2c, 0xfd, 0xff, 0xff, 0x64, 0x00, 0x00, 0x00,
  0x73, 0x65, 0x71, 0x75, 0x65, 0x6e, 0x74, 0x69, 0x61, 0x6c, 0x5f, 0x32,
  0x30, 0x5f, 0x31, 0x2f, 0x64, 0x65, 0x6e, 0x73, 0x65, 0x5f, 0x36, 0x31,
  0x5f, 0x31, 0x2f, 0x4d, 0x61, 0x74, 0x4d, 0x75, 0x6c, 0x3b, 0x73, 0x65,
  0x71, 0x75, 0x65, 0x6e, 0x74, 0x69, 0x61, 0x6c, 0x5f, 0x32, 0x30, 0x5f,
  0x31, 0x2f, 0x64, 0x65, 0x6e, 0x73, 0x65, 0x5f, 0x36, 0x31, 0x5f, 0x31,
  0x2f, 0x52, 0x65, 0x6c, 0x75, 0x3b, 0x73, 0x65, 0x71, 0x75, 0x65, 0x6e,
  0x74, 0x69, 0x61, 0x6c, 0x5f, 0x32, 0x30, 0x5f, 0x31, 0x2f, 0x64, 0x65,
  0x6e, 0x73, 0x65, 0x5f, 0x36, 0x31, 0x5f, 0x31, 0x2f, 0x42, 0x69, 0x61,
  0x73, 0x41, 0x64, 0x64, 0x00, 0x00, 0x00, 0x00, 0x02, 0x00, 0x00, 0x00,
  0x08, 0x00, 0x00, 0x00, 0x10, 0x00, 0x00, 0x00, 0xd6, 0xfd, 0xff, 0xff,
  0x00, 0x00, 0x00, 0x01, 0x10, 0x00, 0x00, 0x00, 0x10, 0x00, 0x00, 0x00,
  0x08, 0x00, 0x00, 0x00, 0x74, 0x00, 0x00, 0x00, 0xc0, 0xfd, 0xff, 0xff,
  0x64, 0x00, 0x00, 0x00, 0x73, 0x65, 0x71, 0x75, 0x65, 0x6e, 0x74, 0x69,
  0x61, 0x6c, 0x5f, 0x32, 0x30, 0x5f, 0x31, 0x2f, 0x64, 0x65, 0x6e, 0x73,
  0x65, 0x5f, 0x36, 0x30, 0x5f, 0x31, 0x2f, 0x4d, 0x61, 0x74, 0x4d, 0x75,
  0x6c, 0x3b, 0x73, 0x65, 0x71, 0x75, 0x65, 0x6e, 0x74, 0x69, 0x61, 0x6c,
  0x5f, 0x32, 0x30, 0x5f, 0x31, 0x2f, 0x64, 0x65, 0x6e, 0x73, 0x65, 0x5f,
  0x36, 0x30, 0x5f, 0x31, 0x2f, 0x52, 0x65, 0x6c, 0x75, 0x3b, 0x73, 0x65,
  0x71, 0x75, 0x65, 0x6e, 0x74, 0x69, 0x61, 0x6c, 0x5f, 0x32, 0x30, 0x5f,
  0x31, 0x2f, 0x64, 0x65, 0x6e, 0x73, 0x65, 0x5f, 0x36, 0x30, 0x5f, 0x31,
  0x2f, 0x42, 0x69, 0x61, 0x73, 0x41, 0x64, 0x64, 0x00, 0x00, 0x00, 0x00,
  0x02, 0x00, 0x00, 0x00, 0x08, 0x00, 0x00, 0x00, 0x20, 0x00, 0x00, 0x00,
  0x6a, 0xfe, 0xff, 0xff, 0x00, 0x00, 0x00, 0x01, 0x10, 0x00, 0x00, 0x00,
  0x10, 0x00, 0x00, 0x00, 0x07, 0x00, 0x00, 0x00, 0x30, 0x00, 0x00, 0x00,
  0x54, 0xfe, 0xff, 0xff, 0x21, 0x00, 0x00, 0x00, 0x73, 0x65, 0x71, 0x75,
  0x65, 0x6e, 0x74, 0x69, 0x61, 0x6c, 0x5f, 0x32, 0x30, 0x5f, 0x31, 0x2f,
  0x64, 0x65, 0x6e, 0x73, 0x65, 0x5f, 0x36, 0x30, 0x5f, 0x31, 0x2f, 0x4d,
  0x61, 0x74, 0x4d, 0x75, 0x6c, 0x00, 0x00, 0x00, 0x02, 0x00, 0x00, 0x00,
  0x20, 0x00, 0x00, 0x00, 0x5a, 0x00, 0x00, 0x00, 0xba, 0xfe, 0xff, 0xff,
  0x00, 0x00, 0x00, 0x01, 0x10, 0x00, 0x00, 0x00, 0x10, 0x00, 0x00, 0x00,
  0x06, 0x00, 0x00, 0x00, 0x40, 0x00, 0x00, 0x00, 0xa4, 0xfe, 0xff, 0xff,
  0x31, 0x00, 0x00, 0x00, 0x73, 0x65, 0x71, 0x75, 0x65, 0x6e, 0x74, 0x69,
  0x61, 0x6c, 0x5f, 0x32, 0x30, 0x5f, 0x31, 0x2f, 0x64, 0x65, 0x6e, 0x73,
  0x65, 0x5f, 0x36, 0x30, 0x5f, 0x31, 0x2f, 0x42, 0x69, 0x61, 0x73, 0x41,
  0x64, 0x64, 0x2f, 0x52, 0x65, 0x61, 0x64, 0x56, 0x61, 0x72, 0x69, 0x61,
  0x62, 0x6c, 0x65, 0x4f, 0x70, 0x00, 0x00, 0x00, 0x01, 0x00, 0x00, 0x00,
  0x20, 0x00, 0x00, 0x00, 0x16, 0xff, 0xff, 0xff, 0x00, 0x00, 0x00, 0x01,
  0x10, 0x00, 0x00, 0x00, 0x10, 0x00, 0x00, 0x00, 0x05, 0x00, 0x00, 0x00,
  0x1c, 0x00, 0x00, 0x00, 0x00, 0xff, 0xff, 0xff, 0x0f, 0x00, 0x00, 0x00,
  0x61, 0x72, 0x69, 0x74, 0x68, 0x2e, 0x63, 0x6f, 0x6e, 0x73, 0x74, 0x61,
  0x6e, 0x74, 0x33, 0x00, 0x01, 0x00, 0x00, 0x00, 0x10, 0x00, 0x00, 0x00,
  0x4e, 0xff, 0xff, 0xff, 0x00, 0x00, 0x00, 0x01, 0x10, 0x00, 0x00, 0x00,
  0x10, 0x00, 0x00, 0x00, 0x04, 0x00, 0x00, 0x00, 0x1c, 0x00, 0x00, 0x00,
  0x38, 0xff, 0xff, 0xff, 0x0f, 0x00, 0x00, 0x00, 0x61, 0x72, 0x69, 0x74,
  0x68, 0x2e, 0x63, 0x6f, 0x6e, 0x73, 0x74, 0x61, 0x6e, 0x74, 0x32, 0x00,
  0x01, 0x00, 0x00, 0x00, 0x05, 0x00, 0x00, 0x00, 0x86, 0xff, 0xff, 0xff,
  0x00, 0x00, 0x00, 0x01, 0x10, 0x00, 0x00, 0x00, 0x10, 0x00, 0x00, 0x00,
  0x03, 0x00, 0x00, 0x00, 0x1c, 0x00, 0x00, 0x00, 0x70, 0xff, 0xff, 0xff,
  0x0f, 0x00, 0x00, 0x00, 0x61, 0x72, 0x69, 0x74, 0x68, 0x2e, 0x63, 0x6f,
  0x6e, 0x73, 0x74, 0x61, 0x6e, 0x74, 0x31, 0x00, 0x02, 0x00, 0x00, 0x00,
  0x10, 0x00, 0x00, 0x00, 0x20, 0x00, 0x00, 0x00, 0xc2, 0xff, 0xff, 0xff,
  0x00, 0x00, 0x00, 0x01, 0x10, 0x00, 0x00, 0x00, 0x10, 0x00, 0x00, 0x00,
  0x02, 0x00, 0x00, 0x00, 0x1c, 0x00, 0x00, 0x00, 0xac, 0xff, 0xff, 0xff,
  0x0e, 0x00, 0x00, 0x00, 0x61, 0x72, 0x69, 0x74, 0x68, 0x2e, 0x63, 0x6f,
  0x6e, 0x73, 0x74, 0x61, 0x6e, 0x74, 0x00, 0x00, 0x02, 0x00, 0x00, 0x00,
  0x05, 0x00, 0x00, 0x00, 0x10, 0x00, 0x00, 0x00, 0x00, 0x00, 0x16, 0x00,
  0x18, 0x00, 0x14, 0x00, 0x00, 0x00, 0x10, 0x00, 0x0c, 0x00, 0x08, 0x00,
  0x00, 0x00, 0x00, 0x00, 0x00, 0x00, 0x07, 0x00, 0x16, 0x00, 0x00, 0x00,
  0x00, 0x00, 0x00, 0x01, 0x14, 0x00, 0x00, 0x00, 0x14, 0x00, 0x00, 0x00,
  0x01, 0x00, 0x00, 0x00, 0x34, 0x00, 0x00, 0x00, 0x04, 0x00, 0x04, 0x00,
  0x04, 0x00, 0x00, 0x00, 0x22, 0x00, 0x00, 0x00, 0x73, 0x65, 0x72, 0x76,
  0x69, 0x6e, 0x67, 0x5f, 0x64, 0x65, 0x66, 0x61, 0x75, 0x6c, 0x74, 0x5f,
  0x6b, 0x65, 0x72, 0x61, 0x73, 0x5f, 0x74, 0x65, 0x6e, 0x73, 0x6f, 0x72,
  0x5f, 0x31, 0x32, 0x30, 0x3a, 0x30, 0x00, 0x00, 0x02, 0x00, 0x00, 0x00,
  0x08, 0x00, 0x00, 0x00, 0x5a, 0x00, 0x00, 0x00, 0x02, 0x00, 0x00, 0x00,
  0x20, 0x00, 0x00, 0x00, 0x04, 0x00, 0x00, 0x00, 0xf4, 0xff, 0xff, 0xff,
  0x19, 0x00, 0x00, 0x00, 0x00, 0x00, 0x00, 0x19, 0x0c, 0x00, 0x0c, 0x00,
  0x0b, 0x00, 0x00, 0x00, 0x00, 0x00, 0x04, 0x00, 0x0c, 0x00, 0x00, 0x00,
  0x09, 0x00, 0x00, 0x00, 0x00, 0x00, 0x00, 0x09
};
